/**
  ******************************************************************************
  * @file    modellite_data_params.c
  * @author  AST Embedded Analytics Research Platform
  * @date    2024-10-13T14:50:07+0200
  * @brief   AI Tool Automatic Code Generator for Embedded NN computing
  ******************************************************************************
  * Copyright (c) 2024 STMicroelectronics.
  * All rights reserved.
  *
  * This software is licensed under terms that can be found in the LICENSE file
  * in the root directory of this software component.
  * If no LICENSE file comes with this software, it is provided AS-IS.
  ******************************************************************************
  */

#include "modellite_data_params.h"


/**  Activations Section  ****************************************************/
ai_handle g_modellite_activations_table[1 + 2] = {
  AI_HANDLE_PTR(AI_MAGIC_MARKER),
  AI_HANDLE_PTR(NULL),
  AI_HANDLE_PTR(AI_MAGIC_MARKER),
};




/**  Weights Section  ********************************************************/
AI_ALIGNED(32)
const ai_u64 s_modellite_weights_array_u64[42504] = {
  0xbf956098bf9668eaU, 0xbf934ff4bf945846U, 0xbf913f51bf9247a2U, 0xbf8f2eadbf9036ffU,
  0xbf8d1e09bf8e265bU, 0xbf8b0d65bf8c15b7U, 0xbf88fcc1bf8a0513U, 0xbf86ec1ebf87f46fU,
  0xbf84db7abf85e3ccU, 0xbf82cad6bf83d328U, 0xbf80ba32bf81c284U, 0xbf7ce820bf7f58feU,
  0xbf798ab9bf7ab875U, 0xbf75108ebf772131U, 0xbf70ef46bf72ffeaU, 0xbf6ccdfebf6edea2U,
  0xbf68acb7bf6abd5bU, 0xbf648b6fbf669c13U, 0xbf60ce67bf627acbU, 0xbf5c48e0bf5e5984U,
  0xbf582799bf5a383cU, 0xbf54dd08bf5616f5U, 0xbf4f4494bf51c3edU, 0xbf4bc3c2bf4dd466U,
  0xbf47f331bf4a3de9U, 0xbf433e11bf4591d6U, 0xbf3f5febbf41708fU, 0xbf3b3ea3bf3d3ba0U,
  0xbf376e30bf39f22cU, 0xbf323c2dbf350cb8U, 0xbf2f1cb5bf315f4dU, 0xbf2b3ec5bf2c72f1U,
  0xbf26d70ebf283707U, 0xbf22358fbf24ab2cU, 0xbf1e88eebf204383U, 0xbf19f5b2bf1bc934U,
  0xbf15e578bf1869fbU, 0xbf122ee3bf141ae0U, 0xbf0d61d8bf0f6393U, 0xbf09f1d4bf0b865cU,
  0xbf04e80bbf074bdaU, 0xbf011ebdbf0347acU, 0xbefb53cdbefeac3dU, 0xbef27a34bef6e8f3U,
  0xbee9c473beee4447U, 0xbee2011dbee5d00cU, 0xbed9b55ebeddadacU, 0xbed187e9bed57fc4U,
  0xbec9a94fbecdb686U, 0xbec169adbec5ab93U, 0xbeb8f546bebd4533U, 0xbeb04cf6beb4847bU,
  0xbea7faf5beabfe02U, 0xbe9fc0bbbea3ca8fU, 0xbe979b87be9bb916U, 0xbe8f1b7dbe933e2fU,
  0xbe86b9babe8b005dU, 0xbe7cc072be82a3e9U, 0xbe6c7476be74b136U, 0xbe5af67bbe63c269U,
  0xbe4b40d3be533720U, 0xbe3b675ebe4373c4U, 0xbe2a4f6bbe3325f3U, 0xbe197763be21e88bU,
  0xbe08fa0ebe116f82U, 0xbdf01ebbbe006e80U, 0xbdcea75bbddfba53U, 0xbdacc250bdbdb513U,
  0xbd8d3698bd9cd6ccU, 0xbd5a9b3ebd7a876fU, 0xbd1980f2bd3a1d58U, 0xbcb1291cbcf23017U,
  0xbbb6edeabc5f5af9U, 0x3c2ced573b25c133U, 0x3cda533e3c97ea00U, 0x3d2ee8bb3d0df482U,
  0x3d701ee03d4feec9U, 0x3d97e5dc3d87ff6bU, 0x3db8a3ea3da81cacU, 0x3ddaa1ce3dc958fcU,
  0x3dfc20943deb5639U, 0x3e0eb9683e0642baU, 0x3e1f45283e17174eU, 0x3e2f9cbf3e27813bU,
  0x3e3f98b03e376050U, 0x3e5053793e47e0daU, 0x3e61027e3e58e224U, 0x3e72170b3e69c9eaU,
  0x3e80e6923e79a75eU, 0x3e8939743e84e92fU, 0x3e91e2a03e8dbf82U, 0x3e9a34023e95f50fU,
  0x3ea23a443e9e321aU, 0x3eaa1fe23ea641f7U, 0x3eb201233eae39a2U, 0x3ebaf25a3eb6ac9bU,
  0x3ec33b6a3ebf201eU, 0x3ecbcb3a3ec72853U, 0x3ed40f983ed02950U, 0x3edba9fd3ed81d8cU,
  0x3ee424293edfecd6U, 0x3eec9dbe3ee89f28U, 0x3ef52a183ef0e716U, 0x3efd2f3c3ef9867bU,
  0x3f0271043f00b65bU, 0x3f06953d3f044320U, 0x3f0a9ec53f08df11U, 0x3f0f3ad53f0ca94cU,
  0x3f1345943f115f95U, 0x3f174d7f3f15a7c2U, 0x3f1b65af3f19bbc0U, 0x3f1f7ac83f1d6757U,
  0x3f23e51c3f218895U, 0x3f28f9303f25dec5U, 0x3f2c398c3f2a9741U, 0x3f3031f83f2e2fcaU,
  0x3f33e5043f31d734U, 0x3f3835a93f361666U, 0x3f3bf6923f3a852bU, 0x3f4122913f3f1cb1U,
  0x3f4553013f42ad78U, 0x3f47fd563f46ee60U, 0x3f4d1f743f4b9b85U, 0x3f513c353f4e918aU,
  0x3f55869c3f52c6e1U, 0x3f58b8043f57cff7U, 0x3f5da00b3f5b8f68U, 0x3f61c1533f5fb0afU,
  0xa9b6b39ea4b8c096U, 0xb0bea8a287ae9495U, 0xad9497a8b0b09eabU, 0xa18cadb79b989681U,
  0x949e93a7a19e988fU, 0x8dad83a688c1a390U, 0xb3a6898da68f90a7U, 0x85969a9c9e889193U,
  0x798c8f9689858a8eU, 0x8c9c8f85849a9ea8U, 0x90948e739a89a594U, 0x95a492949da99492U,
  0xaf8d948c8297819aU, 0x9d7c948b999b929eU, 0x979c909e838b8687U, 0x888b93a48b94919bU,
  0x9f8892929c96a794U, 0x9d92858a81809092U, 0x8997919d8e908b9dU, 0x8e8f9b9292858786U,
  0x8f7e9383908d9f9dU, 0x8ca88e98919c9c97U, 0x9291978d838a81a4U, 0x8785a08fa48d948cU,
  0x939893969a8e7b87U, 0x9b807e8788a8919aU, 0xa583a48498978c95U, 0xa193969879888b7fU,
  0x93858b9a83978e8dU, 0x9e979396948e8a87U, 0x8c96868c8385a187U, 0x92a68d988c8892a0U,
  0x868da39a8a8f8681U, 0x8e90928eac809a8bU, 0x89ab90949b998d94U, 0x918b9981929799aeU,
  0x8b8f9a82ab878e94U, 0x9386969b8b9c8e94U, 0xa18da4948da781a3U, 0x988a9990869fa198U,
  0x8aa5a3908ba09a99U, 0x938d829e7a9c798eU, 0xae879f84afa99988U, 0xa6947f948e82967fU,
  0x84a17d9e829c87afU, 0x819fa488907a8e89U, 0x8c96918daa86a290U, 0x939d928a989d8e8eU,
  0xa38f93a6a38fa3aeU, 0x98aaa7978e8a86a4U, 0x88869ea18d9c99a4U, 0x9f97a695a7b79895U,
  0xad90869982af9992U, 0xb4c5999e9a9a9b9fU, 0x9fa192aa98939f91U, 0x92ab9ec9c0a18f94U,
  0x8a918e8e859294a8U, 0x8a828595869e9793U, 0x93978e919390a29aU, 0x8ca1a1827f969a7eU,
  0x8a9f88a0868e9992U, 0x9aa7a4849f9f8a89U, 0xa2858e919e81a18eU, 0x8d978f969ca68593U,
  0x9c83939c759a81a4U, 0x9495a87d90829ea0U, 0x93a095a190929d80U, 0x8f9b8598879e829dU,
  0xa17e8c8e9d959c8cU, 0x9da19a8c9f779a94U, 0x7e9792a6848d9395U, 0x918495959a97959eU,
  0x918ea7819397a480U, 0x8fa5918b90969b96U, 0x9a9489907e997e90U, 0x9f74919aa386998cU,
  0x828a8e91a5898680U, 0x98898f96769f989cU, 0x8d8795868f819c94U, 0x929f979286919d84U,
  0x899c7a9e8d9b8391U, 0x93888d909ba7a090U, 0x9e908f7f857a978cU, 0x78998c9a80908393U,
  0x9b8094a4927d7f97U, 0x8e81927795899784U, 0x969f8a9989979c9cU, 0x9c99a48c92a57e97U,
  0x93778e899a7e9687U, 0x85988195a0968290U, 0x9d8990a380899198U, 0x9a8c998393829099U,
  0x8b9a9e9583829b7dU, 0x878f7f9b859a8592U, 0xa58e92829a9ea884U, 0x9797859b93799886U,
  0x83908f9c8d8d8b9fU, 0x8c8b97969f7c8f99U, 0x789997818681988aU, 0x84a3928a879da3a4U,
  0x909a9d859a96878eU, 0x9a808b79a0869091U, 0x868f7f9f999d8c9cU, 0x948aa286798b7fa3U,
  0x7f8dab8b96819fa6U, 0x85999895828e9080U, 0x9a9c848782ad8c93U, 0xa88792869f9e9b8aU,
  0x9a8b87a08a768a7fU, 0x7c8c90b08297859fU, 0x948fa4a2908ea096U, 0x8b9d89717f8c9880U,
  0x8f87909691a4a59aU, 0x919a989b9b8e7f8fU, 0x92897a91779d8b8cU, 0x999796828a7e9a87U,
  0x91a18d8f9583a379U, 0x849483a79b9e968dU, 0xa38d8f8f97978a96U, 0x98939194927fa68bU,
  0x89999394958c929cU, 0x9690989b87968f9eU, 0x8a95a091a78fa294U, 0x989d928b88a08f92U,
  0x95868398828f8b9fU, 0x9d89a18f928c938dU, 0x8d99929a8a888f8eU, 0x8f8c8e9482a29197U,
  0x979a929894978b95U, 0x97938890978d9482U, 0x8e998ca4899d968cU, 0x9d938e988f959397U,
  0x8d9092909f909f96U, 0x8a97948c999d9a8dU, 0x93868e89908f9393U, 0x9a879c84928b8c98U,
  0x938d8d9d97909c93U, 0x8e9892988a938392U, 0x9e889f879a8b9489U, 0x909e998a89868b98U,
  0x94908b9c869c889aU, 0x9392869597939794U, 0x88958a85959b9c86U, 0x949e819493958e9dU,
  0x938a988f94918b99U, 0x868890919b8d9c89U, 0x84938c938a9f8d8aU, 0x9d98948d978e8d98U,
  0x938e948096859288U, 0x868c929490918889U, 0x90838c93868c8395U, 0x8d919d92928e9388U,
  0x8f9a899483899387U, 0x8a958e978d928683U, 0xa08b81998f999588U, 0x949b8591978b9786U,
  0x8a97818f8e818d9eU, 0x8c94948a928c8d95U, 0x85809c959485a18aU, 0x85a0868f988e968bU,
  0x8f9797918b908f92U, 0x878f937d9c8b8f93U, 0x8f89979c90928f89U, 0x92838088878b819fU,
  0x947e968990979f92U, 0x878f9393808e9694U, 0x8b8c9697839e9388U, 0x9295868996979688U,
  0x8c8a80949791937fU, 0x8e9187928a8a8297U, 0x8e859a98938a888fU, 0x97919a939d95999aU,
  0x8b92978c968e938cU, 0x8d9293878f908999U, 0x929298989b969692U, 0x959d968f87988c91U,
  0x9c8f988f85958a8dU, 0x9b97938c92969c8cU, 0x8e898e9592889189U, 0x97918d91998d968fU,
  0x94918e8f8a939490U, 0x939e918b97969f8cU, 0x949f9199958d9598U, 0x9c959498958a8590U,
  0x9495939098989d8fU, 0x909799918a9a8d97U, 0x95969b96919a9798U, 0x919498959f8a9c94U,
  0x909a8d8d859b8c95U, 0x9c878d9888938e9fU, 0x9c9b8d909d909a8fU, 0x928f97968c878b8aU,
  0x848d90938d928d8cU, 0x918b9a8e99899a8cU, 0x919d8d878f969496U, 0x95978e92869d9196U,
  0x9091939a92908d94U, 0x8e969297978d9d89U, 0x939a969089999299U, 0x8d8c9c8990928b9dU,
  0x9b94929490929a88U, 0x909b949995968591U, 0x9d85959b908f979aU, 0x958c929393969199U,
  0x8598909b90869693U, 0x8c908d9f9098878fU, 0x9d8b8c9793959d8bU, 0x8f8d92928c948d8fU,
  0x919d949293988e99U, 0x948c938d8c8b888fU, 0x9992988a9a959f93U, 0x8c90899289978c8eU,
  0x9c9b9390949a999fU, 0x8c879b88998b8f86U, 0x898c859a969d9a98U, 0x9c9b899a8693948fU,
  0x918c8f8c9086908cU, 0x8c969d998897898aU, 0x90948e959a978990U, 0x919797918e918892U,
  0x949394978f949699U, 0x8b9a8895959b8492U, 0x8e8e908b8d928d94U, 0x90898893918e968bU,
  0x969596988e919899U, 0x9a8d9a8b9093898dU, 0x9096939a96909594U, 0xab86778496959296U,
  0xa9a5a4b4b2afc086U, 0x83b26996867c8299U, 0x7f8fa0a18b8d8d93U, 0x88a99385a1488295U,
  0x4e728a829ca1aa8aU, 0x9c9d8b898c9e6e8fU, 0xa58191527d878da0U, 0x8e8a9c9d8f82978aU,
  0x789785a17d9a5c76U, 0x7c5c79928e8da0a3U, 0x948b9b81958e9e73U, 0x8a908377547a978cU,
  0x7488939aa89f7898U, 0xaa8a897f9c838a57U, 0x7e8658859d8e9fadU, 0x999494a87d9486a6U,
  0x99989c768f5b7b9dU, 0x5b7399899497ae77U, 0x8eab8d9191a48193U, 0x9a8b8e5d7e959691U,
  0x8d90908fa58a8f94U, 0x7a919ca18f8f667dU, 0x9061859994989e9bU, 0x9e9e967284949d91U,
  0x8d9f9b9e5e869088U, 0x90979390998c7296U, 0x867f9087a58da05cU, 0x90a15b849a9a958eU,
  0x8d9999987f8f8daaU, 0x95989d879f668693U, 0x559190949d9e9c8dU, 0x9ea490999b9c8098U,
  0x9e95945c94988b91U, 0x9c8d8c9f9a7d9194U, 0x959f96978f8b6491U, 0x9a5992a2978a9293U,
  0x9194a3958e8b9082U, 0x86978a966392948bU, 0x9d999193a0a4969eU, 0x8f869e9099819461U,
  0x7e8677a2948d9293U, 0x8592958f888c8e92U, 0x717e8882927fa385U, 0x8391998d8d919b7eU,
  0x97a17b7888877b8fU, 0x82908f7f8ca1938aU, 0xa1838c9892767998U, 0x888092958891828cU,
  0x927693a890879a9bU, 0x918b9785969c948aU, 0x8e9d8ea883aaa093U, 0xa1a486908d928c97U,
  0x998b9b92a47cb17fU, 0x8cb18eb59e9b899eU, 0xa19c94927a897fa5U, 0x8b7dc2abc685bbabU,
  0x67906b7f64a4989dU, 0x9f8fa2a47ec77fbfU, 0xc483af6785758290U, 0x8d9499988aa99d90U,
  0xa7aea7a4b6b581a5U, 0x9d7f9e82947fb7a9U, 0x8aafa98a9e867c96U, 0x818093877787748bU,
  0x767c8a869ea27fa9U, 0x937d99858b917f6cU, 0x8d777e8674927ea1U, 0x8e799b9086968c92U,
  0x9785908983839084U, 0x858a8a9375918190U, 0x958f87a08c8f9897U, 0x978b908d938f9876U,
  0x8b8d858893929595U, 0x8b95989a88988d91U, 0x977c9f89987e948aU, 0x8e8385878a8e9688U,
  0x959071918a978a9fU, 0x9a7ea1858c88809eU, 0x8093948f867ba083U, 0x79978ba28fa39a89U,
  0x9f8e9389978d8c8eU, 0xa493907a9995a585U, 0x92ad7a979b969999U, 0x9895979c8d917cafU,
  0x92849f8dab82a89cU, 0x82978c8a92978f90U, 0x94868b897b9c8e9dU, 0xa38fa9879799969cU,
  0x968d9e8b93909288U, 0x8988949793a58298U, 0x9d90a4979790858bU, 0x8b94988c91818f96U,
  0x8799909193a89495U, 0x9e90898a95a58790U, 0xaa97928099919396U, 0x87a194b8a3959797U,
  0xa09d999d9899879eU, 0x937f9f85a295aa94U, 0x93a583988d8ca1a5U, 0x899d938e82a18695U,
  0x8e7f969fa78c8f97U, 0x8d959d8998879585U, 0x7b968a9281a6a796U, 0x9fa19b8aa3988692U,
  0x828e8a709386968eU, 0x7d928a9ea3a78894U, 0x9f7e86837b8c729dU, 0x897195838b82a3a6U,
  0x869e979e8097897dU, 0x9d87828f6a8b8294U, 0x8871877691839d7fU, 0x819db77b837a926cU,
  0x71a4789d7292809cU, 0x8b948a927c958e7dU, 0x979098929a948a93U, 0x838b8a9384978979U,
  0x959b84959b97909bU, 0x9b918b8f8f8d998bU, 0x9a95849193939592U, 0x9490939690948191U,
  0x8685928b928e9b8dU, 0x95909186938f8f90U, 0x949186948d858b91U, 0x88918f878f988b9aU,
  0x9a878e9a998d9590U, 0x8b99819a9095978eU, 0x97868b928d92978eU, 0x9f9093969187909bU,
  0x82879b938b919892U, 0x8b9c879194979898U, 0x969c978f9b998d84U, 0xa38e89998d93979cU,
  0x929f8f9597968893U, 0x95828e9891929c92U, 0x8e959492968e8e8eU, 0x979a8d96908e948aU,
  0x8f9d99949b8b929eU, 0x95859d9398849883U, 0x8697899a979d8495U, 0x9e858c898e98a08dU,
  0x9a99978c89929697U, 0x8a9f9a9894909a8eU, 0x8e958b9d92998a8fU, 0x948d85868b8e8f93U,
  0x988f89959b889091U, 0x8fa1929985888a9fU, 0x94879a908c859098U, 0x82998f8f98919791U,
  0x8a9183908b988d8fU, 0x969d8c849d978d96U, 0x8c87999c9c91988eU, 0x91908f909c879295U,
  0x9685969699969798U, 0x9ca1958c8d948b91U, 0x888e9f91878b8c91U, 0x8a96949b91a38898U,
  0xa4938f91949a8c95U, 0x9b9496928d859392U, 0x919798948c848d92U, 0x85938e9c95928c91U,
  0x99878e8992a19a82U, 0x90987f8782879382U, 0x939c878797969393U, 0x96918d968d7e8a85U,
  0x7c898588988e8b99U, 0x898e908c869d9298U, 0x8f8a907c91798993U, 0x7590978d97907b88U,
  0x976d778d8a95828dU, 0x88899879938c7b8dU, 0x74957aab5f749793U, 0x879071948cc5948aU,
  0xb39d8e7f8f71a164U, 0x56977e819480a289U, 0x91916c898f8f8592U, 0x7d878e5a848c8e8dU,
  0x958a8d9ba578868eU, 0x6e95787b88826275U, 0x89707b887f879398U, 0x7e828a808e7f85a4U,
  0x7e879a6f628aa17bU, 0x83a990887a917f90U, 0x8f7e987f85a46f65U, 0xa0707091ab918478U,
  0x83847394877c7470U, 0x857b71a17c79a6abU, 0x78a59c8f857b8e74U, 0x8b906b979a95a077U,
  0xa296757aac97918dU, 0xa5899574927c7798U, 0x768281968f717aa7U, 0x7188b5a08e8a6c8eU,
  0x947e7d7b897f9092U, 0x8c918e727ac8918bU, 0xc3968d95887e7783U, 0x917f95958b8d8876U,
  0x8d7e84c495919b87U, 0x8da28492868c9488U, 0x91988b9f9683bd84U, 0x89bc9095998e8a7eU,
  0x92938f989e909288U, 0x909a7782b984969bU, 0x828b8fa19a958a94U, 0x999b837c9b7792b3U,
  0x728db38d92988b8eU, 0x94859f9f9b83829cU, 0x90858a718fbb8599U, 0xb98a93948595999dU,
  0x95929b8f91987fa2U, 0x9483adbb91a19484U, 0x8a7d929e9fa6a195U, 0xc5c187ab79b9b4a6U,
  0xc0a8ab8e7b94aeceU, 0x9bbcbdb7b18fba72U, 0x88a774c0aeac9c7bU, 0x8c9592adc1cbc4acU,
  0xa8ababaca7889ec8U, 0x7f9ab58a96a2b894U, 0x91998d9a98af9198U, 0x926d9b658e9a869dU,
  0xa48c9f998c9aa8a0U, 0x999596a16ba17694U, 0xa482a0a698aea08aU, 0x8f988f8b8f809977U,
  0x998c7b92a2a2aa79U, 0xb8a37e8f978c808aU, 0x9897acb28b9499c3U, 0x9f869885a4868d94U,
  0x8b82968b949e998fU, 0x9e999ca7929e8691U, 0x95a0978d91979b93U, 0x989b8d928f90968cU,
  0x959a969ba1929790U, 0x949382999c8e949bU, 0x97a38f8ea09b96a0U, 0xa29399939290948fU,
  0x8f999d9f9b958b8fU, 0x919a989999929691U, 0x9e8f978c95938e97U, 0x9490968994949c9bU,
  0x9694a1a190948a93U, 0x9495958b92948696U, 0x9898938a95a19e99U, 0x919c8d978c8f9c93U,
  0x96998b94939295a1U, 0x8b97959091998e90U, 0x9999999b968c9190U, 0x9c8f9889979793a1U,
  0x9a95988ea1899293U, 0x9aa09997948b8e8bU, 0x98928ba098a08ba2U, 0x968899999e9c999aU,
  0x8e8f8c8d8493a391U, 0x8d958d9e95938892U, 0x9d919f958d9a8c8eU, 0x93939593988b9897U,
  0x9497959a8d9a8c98U, 0x93908c8e87939996U, 0x8e929b938b919899U, 0x968e8d92938e9c8cU,
  0x9493938c919d968bU, 0x968b94889b979f8bU, 0x8d908f938f908c8fU, 0x958f8494939d959dU,
  0x9b878e979f8a9496U, 0x8a8f968e99889795U, 0x8b94978e86909191U, 0x9e879f879b8c9289U,
  0x9497918f8d919587U, 0x9995958d978f9596U, 0x998a8e9897938b92U, 0x98958c9095849694U,
  0x948d8f95898c8d9aU, 0x93999a918c8f8f91U, 0x8f8f9d99919e998fU, 0xa2909b8f99908d88U,
  0x9795929895a290a1U, 0x9a8b969e95909c9aU, 0x928e979997879a99U, 0x8e929992999b999eU,
  0x98929b8a988c9798U, 0x9c9b919891949789U, 0x93978a95a09e8a9bU, 0x8d9397949d8d8c8eU,
  0xa19a928e8e90948eU, 0x8697888a91909295U, 0x949e929b8d9f8a8eU, 0x8f879d9094908a85U,
  0x8d8e8e9b9990948fU, 0x889d8a998c999695U, 0x9d919c9692969793U, 0x8e978d85988da08dU,
  0x8aa18c9395959395U, 0x8d93978499979391U, 0x90929792a18d998eU, 0x8697868e918b919bU,
  0x92849c8d8891929fU, 0x9a94959697898c92U, 0x909e939b88969c97U, 0x9d9c8d9691908d97U,
  0x9f908e8993899987U, 0x8f92888f938c9987U, 0x85928f958b9c8490U, 0x9a87918496879d9bU,
  0x91988c8d9887978aU, 0x8f90858d8d8e8e8fU, 0x978398918d8b8b95U, 0x94849b938f979386U,
  0x86908d8d878f8d9fU, 0x9994908b96938994U, 0x978a9a8c9d85978cU, 0x9392949188918d84U,
  0x939a859698968898U, 0xa08f908b91879190U, 0x838d8c9492919b8cU, 0x8a8e869b919a8c92U,
  0xa0929790988b9999U, 0x858f929196999698U, 0x8f96909d869d8391U, 0x9a939c87988b89a0U,
  0x9895a1908d979689U, 0x8a9094998a9a9694U, 0x998d9c8b919b8891U, 0xa0879f9498889284U,
  0x8e9390928d989890U, 0x98968e8e8c8e898dU, 0x9a87978693919796U, 0x87998f8f98899b89U,
  0x869a869c8b91909aU, 0x94909c8893939498U, 0x94948f8b8e889892U, 0x91939197968c9398U,
  0x998b9584939c9493U, 0x9a8687978e8e8585U, 0x8e97908d8e91959aU, 0x9085929a90968e93U,
  0x8b8e9f8796859c8dU, 0x8f8f8c908e929490U, 0x919a889791998c89U, 0x928e86868c869d85U,
  0x8b8989989e8f8e98U, 0x988d8f8a88949990U, 0x91888a928d8e8f99U, 0x958894928d8f9091U,
  0x95959995938b9393U, 0x95918c978d89928aU, 0x9387908a8b878b8cU, 0x94978c9798978b89U,
  0x8a9889998c99908cU, 0x8f9b98898e949387U, 0x88939a95959a8996U, 0x88918899948b9692U,
  0x8f919a8e90878896U, 0x8d979b8b9492949cU, 0x988a9599979b939cU, 0x93958c8f99928e8eU,
  0x9494938c8d8e9288U, 0x899798898d94948dU, 0x958898879a8f9699U, 0x9596989294909896U,
  0x97958b9a8b9a9a99U, 0x908c948f96958e91U, 0x9c908e879a8d8c8fU, 0x8d8a889a908f8f94U,
  0x9a8b8b8c89938c89U, 0x908e8f89958d9c8cU, 0x9792969a8a909189U, 0x9598988d8b928889U,
  0x879690989298959aU, 0x8f989095909a948fU, 0x9390908c998a9096U, 0x91879896898a8e97U,
  0x8b8e8d8a998e9195U, 0x908b9795928f9b8fU, 0x8b938a8f999b9098U, 0x8d8b8f8c8a899a92U,
  0x9791889a97919b90U, 0x8b8f978a9b999898U, 0x8b8999998d8c938bU, 0x8b89988a9a8f9c90U,
  0x898a8c91908f8a8bU, 0x888a93919b979a8dU, 0x879a958a9b999793U, 0x8e9a8b898e8f8d91U,
  0x95948d93968d9299U, 0x92958e8c8e8d988fU, 0x8d8d8d93938e8c98U, 0x9d94959a95919b92U,
  0x918f9190979b958fU, 0x899887959a88909aU, 0x8a9a928d9b979899U, 0x90999a8e8e968d94U,
  0x8c8b87958d9a948cU, 0x98929a9590978c8bU, 0x929290959c998788U, 0x9387928e8a8a9293U,
  0x989b94948f8a9b9cU, 0x9c89928e938b8c98U, 0xa8aa9c9ba29a9a9bU, 0x9c8e9c9c8c948d94U,
  0x9f8e999e9c9ba78dU, 0x9ea58c9697919e9eU, 0x968d8e9f9793a098U, 0x9a9a988d9c978e89U,
  0x8e839390969a9a84U, 0x8ea28d889a8c989aU, 0x949c9a8d83968a89U, 0x988d97938f8f9a8eU,
  0x89938d8e9a8e9387U, 0x989a8b8c94928e9eU, 0x8b909e909a8d9392U, 0x878e9f8f8a7a9596U,
  0x7d918a92968d9685U, 0x9e95908a8f9a9392U, 0x919a957995909498U, 0x8e8b968b9799958cU,
  0x9b8b91909b977e9eU, 0x917e939493888d96U, 0x8a988993938f8c8eU, 0x97929ea07c948b92U,
  0x8f839a928f949988U, 0x8f8e958d958c9a7eU, 0x93987d9f888f8f9dU, 0x958997829399849bU,
  0x8b8a8f908f8c9d83U, 0x828a819b999d8a96U, 0x9583868e9693999eU, 0x9097908194929a8cU,
  0x8e8e999983918f87U, 0x85988590909d7f9bU, 0x987f9b8d99898d8fU, 0x978d8987868b9a8eU,
  0x918f948d7c9e868dU, 0x9b929e9897848895U, 0x869a8d919c9b8b7bU, 0x949587988d8f9492U,
  0x91918f88988f998dU, 0x97879a978c899a89U, 0x82998f979990899bU, 0x9886958a9b9e9996U,
  0x9da6997d93989993U, 0x88a28b948a8b8b8dU, 0x8f93989998968e8dU, 0x918693959d969187U,
  0x8e988999928c9ea1U, 0x918d9b948b988e96U, 0x8d97908e9f898c96U, 0x898e8a8b91939a81U,
  0x969a8799959a9991U, 0xa1958c7d8f95928dU, 0x8e88909994879990U, 0x7b94949c8f908493U,
  0x9a939d9a9ca5919bU, 0xa49a94858d919488U, 0x8e9a9593809a96a0U, 0x9497949e909a9091U,
  0x9b928e968d998899U, 0x8e95978988919497U, 0x8e90958e939b8d96U, 0x9a979c8e90998b93U,
  0x8c9998899c919488U, 0x969b969c99908f97U, 0x918896999397968fU, 0x8c988a93918a9393U,
  0x909787958f959a9bU, 0x93988a8e97988f8fU, 0x90979d878d95908aU, 0x908e908f8e898f90U,
  0x9b9698949b929a9bU, 0x8f8a9c9a94919c9bU, 0x8994948b95959b8aU, 0x95919b9a899a9a93U,
  0x8e8b93888f8b9996U, 0x989a8c8d8c9c9994U, 0x9a91959c988f9290U, 0x8a879298999a9699U,
  0x89908d988c889392U, 0x938e879d8b8e938bU, 0x9d9690959b979195U, 0x9e8e908895979995U,
  0x9899999b99948f8bU, 0x8b9a9c9d919b899aU, 0x8f899c9195898a8dU, 0x958e959a939c948eU,
  0x899b8c938a9a9a8dU, 0x908796909a8a939bU, 0x92959c9591919298U, 0x988f8b9198898a9cU,
  0x8d969c878e988b8aU, 0x8d8a94918e929b92U, 0x8b9c8f9193918d9aU, 0x8b88899c8b94929bU,
  0x8e91958a929b9089U, 0x8790959395909790U, 0x9a8e89928d989694U, 0x9b978c8e90928b9aU,
  0x8990999c94929899U, 0x969a9193938b8c9aU, 0x91988a9390929189U, 0x8e968e8e8d989c97U,
  0x96988e95988b8f98U, 0x928b909695938a8cU, 0x9a96919790899595U, 0x8c958a9a8f8d898bU,
  0x8b878f8f948b918fU, 0x92898d89928f9295U, 0x9a8c95968a8f9692U, 0x928b989993978d8cU,
  0x988a9c918e8f9791U, 0x8b9a86988d929d87U, 0x98939a9593949991U, 0x9795898a9a929890U,
  0x928a8a988c9a9c91U, 0x8b988a99988d918aU, 0x8c8b939298999b90U, 0x96958e8f8f8c938cU,
  0x899b9794909c8a99U, 0x93908c9896919793U, 0x94998c918c959a96U, 0x8c8d89968c929491U,
  0x8b958e9993908e96U, 0x9c8e8f8f92989095U, 0x9195949690969b8dU, 0x9b938f91978f9395U,
  0x8b978d998b8e9a98U, 0x898e8c998d959398U, 0x979b909397929390U, 0x8d8a8e888d909a88U,
  0x929a999589948a95U, 0x959a8e8c8d8f8796U, 0x97909a9191969b91U, 0x8990949795979395U,
  0x8d94959693948f97U, 0x8e9088908d90958bU, 0x998d978d90898d93U, 0x8a8a89998a998c9bU,
  0x91958e928a928797U, 0x98949c8b988c9497U, 0x8a8f8c928d9a898bU, 0x8e8b96968b959a9bU,
  0x9a969b8c8b8e9695U, 0x88938c8f9c969894U, 0x93988a8c90988994U, 0x9a8a9596928e8a9aU,
  0x898d9b979b8d9494U, 0x8c8d8d8e95938891U, 0x95969a92948e8f9aU, 0x909398938a878f8aU,
  0x949a89898a918f93U, 0x998f8d9698918e9aU, 0x8e888a9792909293U, 0x999a8789928c908dU,
  0x9a9a89899095899aU, 0x9387908c9492929aU, 0x8d999c8c948b8d9aU, 0x939a908d98998c97U,
  0x9497969594928c9bU, 0x8b8e95998d8c968aU, 0x92999892888d979aU, 0x968a9198999c9189U,
  0x8c959c9597969890U, 0x90959a9599949097U, 0x9b928d99968a8796U, 0x8f92929989878898U,
  0x8a9a97999690998aU, 0x89938b95898d959cU, 0x8b91988799889391U, 0x88898f968b90948bU,
  0x919d9f979485979bU, 0x9f8d90a6a5948d90U, 0x7788868f9f8c95a2U, 0x958395aa7f769b9cU,
  0x909bab8d908a899aU, 0x83769b8f849e9987U, 0x969d9294a2ae8c8aU, 0xa27e8d8981939081U,
  0x9d858c99aa928395U, 0x99849899818a817bU, 0x87907f898c8e92a2U, 0x80a0988e95919b81U,
  0x9ba2829485829186U, 0x78957e7e96a78e96U, 0xa9988485ae83848bU, 0x8e89887d8d887da2U,
  0x84899898978b89a7U, 0x918e9f918b86818bU, 0x8e79898e8297999dU, 0x979e9a8783a38d90U,
  0x9e918c877a8a8781U, 0x8f91869da192948fU, 0x89838ba182939178U, 0x977e838b8487999aU,
  0x948fa1868f889888U, 0x7d958b9b877d9d8cU, 0x7d8d8b9892998490U, 0x9a81877e9f90918dU,
  0x958d8d7b9085988cU, 0x919793a2908f8f98U, 0x8280998b85907d8eU, 0x947f948696969295U,
  0x969992928e93888aU, 0x9f8f8e8e899a91a1U, 0x8e8f978591909589U, 0x9794819a989a9289U,
  0x908586977c9d8698U, 0xa98d8d8e8a7da78fU, 0x889f8e878188908aU, 0x7c9289a589989894U,
  0x89968f8f9b9a848cU, 0x858886779f7aa093U, 0x8c968891908d7f9aU, 0x89909785858780a1U,
  0x857c9a87978e958dU, 0x848987988c9c818aU, 0x9a898b857a8e7ca4U, 0x8e83a58d9290817bU,
  0x969784988e8f917dU, 0x8681749b81a3858aU, 0xaa84908f8d7da68eU, 0x88ad77897f7c8b8dU,
  0x7f8f91a8919e9993U, 0x829f9581aa858e8eU, 0x6c8c81788e97a186U, 0x9dab767d87826f9fU,
  0x80879c6fb597888aU, 0x9c869391959a918bU, 0x869b99968f9a908bU, 0x9491998c8a968c95U,
  0x8f878c9b92899399U, 0x8b9189998f8b8f8bU, 0x938e988b9491928fU, 0x92898e8e92988a92U,
  0x9999968a9c8f8e86U, 0x918b91948e949a8cU, 0x9c9498989897938dU, 0x95908d958b908e98U,
  0x8997929793909188U, 0x8a89918a998b8f9dU, 0x98968c9495969795U, 0x949b8d8c8c929099U,
  0x92928d9597988896U, 0x91899988938f968bU, 0x8a8c998f93989989U, 0x898e9499918c989cU,
  0x9589988b95928991U, 0x9a978c929e93938bU, 0x8c8f908e899e9797U, 0x8b95989499989a8cU,
  0x98968e8a9688938bU, 0x99928f968b929987U, 0x998a9a9a948d8e8aU, 0x9a8b928f97918f90U,
  0x989c9a8c978f9397U, 0x88968a8e96939094U, 0x9c988e889490948bU, 0x8a988f90928e9494U,
  0x92939b92968c889aU, 0x9096938e8a9b8e94U, 0x9294988d9b8a9a88U, 0x8a9788958e9b9a8aU,
  0x8e908f938f8a9995U, 0x978d998f8c979097U, 0x99919894958f9591U, 0x979a979c898a9196U,
  0x988d939091968e8cU, 0x918b899a998d9691U, 0x8c90939296979997U, 0x8d8b8e958f919d96U,
  0x88989c93988c9389U, 0x91908d99978b8890U, 0x958e91879d9b948dU, 0x9992969890998a8dU,
  0x89959197999a9b98U, 0x8e94959c8a959990U, 0x8c8f959395969b89U, 0x979b8f948c9c9390U,
  0x9393889c979b919cU, 0x948f8b9994969397U, 0x889a8c989c918b95U, 0x8b9597948a949290U,
  0x8f938e99999a9597U, 0x8f92918a8d989a9aU, 0x909b928c8b949798U, 0x8f96968c9c9a908eU,
  0x919597898c878f89U, 0x959086908f959099U, 0x8c948d96958f8b98U, 0x9599898b938b989aU,
  0x899c8a8b8a8d9288U, 0x918b8b93928f9895U, 0x8c968c8b8b998f89U, 0x94988e9b8a8c8a9bU,
  0x988a9a9493948a93U, 0x8c998c8e97878b92U, 0x8a9a919696939591U, 0x97979a8d8d958e95U,
  0x999a8b899a998892U, 0x8a8c928e92939196U, 0x8f91958e8c8a948bU, 0x98929c9a988c948bU,
  0x9893939996868c8bU, 0x948f959798959887U, 0x9798969b998b8e93U, 0x968d958d95989689U,
  0x9997908c91969a8bU, 0x8f8d9793888b908dU, 0x948f919389939699U, 0x898b958998968e94U,
  0x8a8e939694928e9bU, 0x909695899c978993U, 0x948e939789889496U, 0x918d8f91959c9496U,
  0x919297958a9c9a9cU, 0x98929796908f8e97U, 0x958c889c8f9a9a8eU, 0x8996888e948a9899U,
  0x928f8d8f988a9092U, 0x8a99998c93969b97U, 0x9a9b95998c928b9aU, 0x898c8d8c8d8d9c93U,
  0x8c8e8d9695988d92U, 0x898b9691948c9192U, 0x9c8b9a8c94948698U, 0x979892968a8b918bU,
  0x899a8f9a92988f9cU, 0x8a9a8c8a979a9391U, 0x928a999399989c94U, 0x8a9c939290968f89U,
  0x9d918a8e9b9b8d93U, 0x9b8e89949b99978fU, 0x9590939899929292U, 0x94968c91968b969bU,
  0x968a9a9b9398919aU, 0x918e9a8791929889U, 0x9a989a8a95989891U, 0x89889d988c969a91U,
  0x998a9b9a899c9089U, 0x8f96978c8f97879bU, 0x90959a8e8e8d9589U, 0xa97eaaab889e94a0U,
  0xa79598969d99bea5U, 0xadb4a1a584b4a08aU, 0xa38aa5bb927c9190U, 0x799d899fb998ab97U,
  0x99979095839eac97U, 0x8da6918c9897acafU, 0x8fa7a7a48e809f7cU, 0x8b93778ea6978ca3U,
  0x84919282a7a59d98U, 0xad9c9b828c8893a0U, 0x8689959684a28e9dU, 0x938298ab8d928998U,
  0xa3889582919c8d93U, 0x9b9190a386a3a199U, 0x999898a67a9e828fU, 0x9a767f9d8893a28eU,
  0x96a0909d9d99a37fU, 0x959e789177829b95U, 0x90908a99a2899b9dU, 0x8393a099a67b987fU,
  0x809170859694909fU, 0x8f8f907d9ca68fa6U, 0x9e95a487a27b879dU, 0x74808f9b939d869dU,
  0xa084a69b8ca47da2U, 0xa68194798b8f9987U, 0x8f91929a8f989993U, 0xa1a6959f7c9a8084U,
  0x9d7d88908e84a28aU, 0x94969097a59dae85U, 0x93a18692808ea294U, 0x939c8c8d9881929eU,
  0x8e899c8c9d889a7eU, 0x829a829798928a90U, 0x9c91937e8fa093aaU, 0x9c96a47e9382919fU,
  0x7a9ea7928297818dU, 0x8f87929d90a97a9bU, 0xab75928194a5a48bU, 0x94a38391858fa09dU,
  0x9b9ca1a373a67c95U, 0x9f71a6a9ab849695U, 0x8b8f98a29f9aad77U, 0x9fa77d997da69dadU,
  0x96a6a17b9f8a8ca3U, 0x90879496a2879682U, 0x85977793a0a87f92U, 0x9f87957e7f8e8493U,
  0x8a869372967698a2U, 0x7da0b0a88a908d84U, 0x988692988e917494U, 0x97828882a2b49a8cU,
  0xa49f939b8386938eU, 0xa1a9a09b839284a3U, 0x8394859fa793a18aU, 0x8c8d9595a9947f72U,
  0x9a89998699939588U, 0x8e9c8d9995ab8692U, 0xa4858a8e98928e91U, 0x969b94898e9c9398U,
  0x8f838e9097899095U, 0x8c92988e9f888b90U, 0x868990a181978f8bU, 0x92948a8a85948593U,
  0x9f859d90928aa193U, 0x8d9f8c968b928496U, 0x8da0939496968c8fU, 0x908d8d83a3829191U,
  0x858b8e9a9388a18aU, 0x8f9a859b8c8e9193U, 0x9c8f9786878e9aa1U, 0x858e9491928c9c88U,
  0x858e848b8496938dU, 0x95809389938b9694U, 0x97929d8d9a819684U, 0x8c9184a883838292U,
  0x8b7f8a8c83948fa0U, 0x989490878d939d87U, 0x8da6848f8b8e8683U, 0x979593958f928499U,
  0x92868f8fa7899483U, 0x8c87829296849191U, 0x818c9290838a83a5U, 0x9a90a19183879995U,
  0x999f948f99859488U, 0x8da181928aa4888aU, 0xa7848f999b948a8fU, 0x94868d8897918a89U,
  0x889a8e978e83919fU, 0x8c898e918b979098U, 0x9a8e958e89859f8fU, 0x84a28b838792868dU,
  0x99939097858f8093U, 0x9a8494849d8f8f90U, 0x908d7a8c8c819188U, 0x8d8b889b8f8e8ba2U,
  0x9797a09397828f8eU, 0x8c938b878f8d9993U, 0x918d8f998e9f858dU, 0xa88a889591838e9cU,
  0x867c95849e869593U, 0x889291958a988e95U, 0x8c859492848f8593U, 0x93949886908ea283U,
  0x8399979388968a8eU, 0x96878f849492819bU, 0x97878f81aa929e9aU, 0x96968e9a87888c8cU,
  0x8f8a8d97919b939fU, 0x9b869d8a8f929084U, 0x8f968c978d8f8391U, 0x9793918b84979892U,
  0x47819f959594918bU, 0xb9a571ab189d45beU, 0xa265a84892a187a1U, 0x928db6c2b795be54U,
  0x92b6a4b2a9af6e7cU, 0x9f9583968d978c9cU, 0x9a77a09c9d9caca5U, 0xafb89da1978d8883U,
  0x9583888784b98eabU, 0xbd9bb8beaf9d8a91U, 0xa08f9984849a9986U, 0x9d9b82ab97b4b1a5U,
  0xa9ac98888e8e9183U, 0xa88c86a89e7fa88fU, 0x8b9c86a7ab998f8dU, 0x989f8fa38c90a19fU,
  0x8d9a8e85b3909ea0U, 0x8faa8d988e97938eU, 0x8c929191939583adU, 0xa27c9495a68f899bU,
  0x908c9f94a29c9394U, 0x988a979c7da7858eU, 0x9d8793919393a2a1U, 0x92a5a99c89919b8eU,
  0x9ea180957b86908bU, 0x848f8b999e989296U, 0x9891929aa5808a7eU, 0x8d8c779497948ca7U,
  0x8c93a09791969e9bU, 0x8897a0878d7d9696U, 0x79898480949e9b99U, 0xa0969c9a9297788cU,
  0x9e71827787807c90U, 0x888693a095908f99U, 0x9587878f777e678aU, 0x935f78727e949698U,
  0x9497878d9481a08fU, 0x8a99848b7182838cU, 0x987a938e948e9590U, 0x93a0918c967c947bU,
  0x8a99809f89a09a85U, 0xa795a3b09e918991U, 0x9e99a788aa8d8f86U, 0x88a493a2899dabb6U,
  0xac9ea99caeba9da8U, 0xc7abbe83aa8aa08fU, 0x7f978e9e86a9a7a8U, 0xa396a6aa93b7959dU,
  0x88877d798f978678U, 0xa885739884838266U, 0x80946a7e7f749894U, 0x749b8f9b747b8591U,
  0x7795947d937b847dU, 0x84938f85968d9c84U, 0x70787b709790779bU, 0x9a6bac92b1aa9993U,
  0x808d5c5a456063abU, 0x9790958f808d7991U, 0x8f9e9d9f998e9597U, 0x9a85899b9f8f9991U,
  0x888c978c96928d8aU, 0x9f969ea2929e8d97U, 0x929b8a9189878a9cU, 0x878b929790999a98U,
  0x949f9890919c8990U, 0x928e909492938f9bU, 0x989b9b87a198908bU, 0x8a8c888c94948f93U,
  0x938895978c8c8e9aU, 0x8f8d9a878c969099U, 0x918c919491939b90U, 0x94998e8d8b948f8aU,
  0x938e9b9591879b91U, 0x969d9594939e9190U, 0x8e908b9093899495U, 0x898c8b8e90889994U,
  0x928a92988b919686U, 0x8e9b8c9a8a8f979aU, 0x8e8f938f99908d90U, 0x968b88969396988fU,
  0x92998c949192988eU, 0x998d8f8d94978c9aU, 0x8e9594948d8c9b90U, 0x8f9d878a99929c95U,
  0x9292999792919295U, 0x998c93889a8c9792U, 0x898f999c9a919488U, 0x908e92949692969eU,
  0x978d8e939c97898aU, 0x8d91889b87899b91U, 0x919098928e948f95U, 0x98919293899c9198U,
  0x988b979990949c96U, 0x9a9a99989693878cU, 0x948e9b9b9998899cU, 0x908a9a92978e9698U,
  0x8f9b95948f958d97U, 0x98948c889c909295U, 0x97889a899b8e898cU, 0x8b95918f9a8e988bU,
  0x94988c9e90999894U, 0x92929e888c999c8bU, 0x8b898e9a8e9b998cU, 0x8e949398989e958cU,
  0x8f919c97969d909aU, 0x95988f978c8c8f8eU, 0x8b908f9b90909896U, 0x9085988e9998888eU,
  0x8d95919194909687U, 0x9d99939c92999a9bU, 0x9997948e8fa08e96U, 0x9493909ca0878c98U,
  0x9a9a948a928c998aU, 0x8a99968e899b969fU, 0x89bdc17f748f8b98U, 0x9da07d825e93a27dU,
  0x6d897189a6b2877dU, 0x9b8c93919f76874cU, 0x879c5b7979818490U, 0x8b79849b988b938dU,
  0x98957f7f97638288U, 0x588e858b86868c8eU, 0x878b8a939183809eU, 0x8e898d66808a8d8cU,
  0x827f96858c869890U, 0x948b94817d97687eU, 0x9d71847a76937f8cU, 0x9089998e88928f7aU,
  0x9e8b8ba17391847aU, 0x8b8685837f8a9196U, 0x8b839a918e7f915eU, 0x919f5a9479778180U,
  0x86727b8a8797998bU, 0x9ca39890925a9086U, 0x628b7f8a7487908bU, 0x8e82948fa8a186a5U,
  0x85839e688a87856fU, 0x8a8f6d8d909290a3U, 0x9a9d9d8b7ea06b8dU, 0xa461847b89788d88U,
  0x748c978f9ca08789U, 0xa17c7d9e648d8185U, 0x81777e7b85898d94U, 0x8b9b94997e869674U,
  0x8b9c6c847c87748aU, 0x85759289939e9591U, 0xa08e9280a06c807cU, 0x6e7d7a8e7d8a929eU,
  0x84919d939f8a8696U, 0x8f8d9d7479738c82U, 0x71828b8c8f989d89U, 0xa0a08896929e6673U,
  0x9f747c7f847f838aU, 0x7983879193918e7fU, 0x9e808392607c6f83U, 0x6a6c8d7b86979a95U,
  0x968f939b8c7e8f60U, 0x87815d6d7c7e8080U, 0x757989918e9c9786U, 0x958d868586556f75U,
  0x596d806e8e829694U, 0x82a0a09a8a948585U, 0x9e828d6175847c98U, 0x787e958199948a9cU,
  0x9e8e9f9b87956d80U, 0xa4687f7e7b9b859eU, 0x827ca58d8ba49588U, 0xa5958ba97b887d7bU,
  0x8c87878c97a9888fU, 0xb99079ab997d9664U, 0x83906b9a986c749bU, 0x96a9af85a294ada9U,
  0x948d8e95a0897d8eU, 0x91858fa4a5af849dU, 0xb478898a85989b9dU, 0x9182979f9690b08bU,
  0x88998aa5867f9181U, 0x7e878e89818b9282U, 0x7c9e8787a38ca481U, 0x96ab8180848a8e85U,
  0x7d8c8c859a8d8698U, 0x9588a19ca2898485U, 0x8b738788878e879bU, 0x8e7e9690819b9aaeU,
  0x998ea87f7b85958fU, 0x948e8f908e989385U, 0x86907d9d98a77c7cU, 0xa17686888992918bU,
  0x90968f80827da387U, 0x85ab8ea3777c8988U, 0x868992a19b837e91U, 0x8684917fa88da67cU,
  0x91a773829289999aU, 0x93968a887d868da2U, 0x94829f8cb4838892U, 0x817989929c8c7f89U,
  0x888d8f81819c87aeU, 0x9985a77e83919096U, 0x9194868e7f89927fU, 0x9190728f89b1778aU,
  0xa4778e9991947d89U, 0x8981808890858d89U, 0x808688b276869685U, 0x848d878886828c86U,
  0x7d8e837d978bab80U, 0x8fab838e99928e8aU, 0x8490958f98718193U, 0x7e728a88a07d8a96U,
  0x848c9682968c8e98U, 0x9691907e818a9a9dU, 0x9a96a4868d928088U, 0x8f81968885927a84U,
  0x8c79859d8ea98397U, 0xa4839f8c81918388U, 0x80837f8874779086U, 0x7f92979990988e86U,
  0x9498817e8a878787U, 0x82867e879296a781U, 0x919f8199938e918bU, 0x86958980888e8e81U,
  0x848f8095a38c9090U, 0x979e848c8f87758cU, 0x848a9b7d829088a4U, 0x9899a08f8a8a858cU,
  0x8e7f898b84967f8bU, 0x9482938ca695a598U, 0x98a5968e919c9084U, 0x99947a81798a7ea4U,
  0x82859285898b9a88U, 0x969b879487938589U, 0x9589888c7598888eU, 0x938a8f8a8b96958dU,
  0x8a9197989482938bU, 0x878e869b91998e8fU, 0x9988988e94949a96U, 0x8e8a8a8c9589a299U,
  0x8b9f988b98979294U, 0x9d93929198948b93U, 0x9484928e8e90978dU, 0x8a9698938e8d9998U,
  0x8b91979884888092U, 0x86919e8e978a9d93U, 0x97928f8d96958890U, 0x8998868c8a8d9a97U,
  0x9c99958d9e949b99U, 0x9e978c908f879581U, 0x908c918b9a869297U, 0x8a888f918b999a8dU,
  0x879b8d829383918eU, 0x838c8c8a89978d88U, 0x988d8b9a938d8586U, 0x9786898c9b898e91U,
  0x9695938d96908b97U, 0x949a96908881849dU, 0x908c95959590988bU, 0x929e9191948b978eU,
  0x8b9983878c919c87U, 0x909696969e929590U, 0x979594909c8a808bU, 0x81828b8b9084969cU,
  0x86919492988d948dU, 0x8b8e9b8c8089978aU, 0x88918e94949a8e93U, 0x93938e9392898d84U,
  0x8f808a8f978e8785U, 0x9c8691988f839099U, 0x87999e908d8e859aU, 0x868b919a948a9b94U,
  0x8f94918793979086U, 0x8e998a94889c9994U, 0x9797848b8f929592U, 0x9797929c8d81848cU,
  0x83948b948b908e98U, 0x95939e8b968d8f8bU, 0x8a9588898e8d9698U, 0x8898938a8d8c908dU,
  0x92948896878d9182U, 0x8d848c8d8e898b87U, 0x8c8f959895978d97U, 0x888a8889818a8299U,
  0x888497948c939194U, 0x898f8b988c8d8b85U, 0x8989898f86968695U, 0x9a8f839789888999U,
  0x918c9b938f7d8486U, 0x8c8792999b97a29fU, 0x9c9a9f9289827e81U, 0x82787f87908a959eU,
  0x878e947f95a08d7fU, 0x9f8489888a8b8f9eU, 0x8d889e8593998193U, 0x8d9096a08a979581U,
  0x8d8b878f8092829cU, 0x95839c918a9ca283U, 0x9a938e8b878b948aU, 0x87958c94959e9f98U,
  0x9d9a8a88997f9895U, 0x8093938e9c849387U, 0x8c9f89949d8c999cU, 0x898aa18590998f9aU,
  0x948ca18d9a85a097U, 0x999891959491929fU, 0x9e8d908a89998391U, 0x9d8da297a09f8891U,
  0x91898f9b929b8689U, 0x9e8b809d869d959bU, 0x978c8d9691939398U, 0x87918f9c98818f89U,
  0x8a8f94a196939f92U, 0x988e908c91908a8cU, 0x888f918f98949e8bU, 0x8c9896949c8a8995U,
  0x878d9493928f829eU, 0x8f90a08b9f929b9bU, 0x898c9d8f879e8d9aU, 0x969a9b8d8c978f93U,
  0x9293a1908e9e838eU, 0x8c8b949a879d9281U, 0x8b9188958d95948aU, 0xa0908e918a8b9596U,
  0x929e9296938f9497U, 0x8d989592868a8c8eU, 0x979089818f8c9891U, 0x8b8d96808d899687U,
  0x859d968e99938b90U, 0x8f888f9490847e98U, 0x8c9099899197998dU, 0x899d928b8d938590U,
  0x9387929a899d8e96U, 0x9c8592939f8d8a88U, 0x9a90808a919d918cU, 0x9b8d83a090a18c91U,
  0x988c978b8c8d9c8fU, 0x899298a295899997U, 0x969d918e98899198U, 0x99928f94909ba08bU,
  0x8e9198968e919d95U, 0x8994908a9894859eU, 0xa2938d989888929aU, 0x888e837f919c9a8eU,
  0x8e9f8aa4858c9385U, 0x978b8f907e8b8c9fU, 0x909e8d8f988a9589U, 0x95918f9d9b888e8fU,
  0x8c868b898d99889aU, 0x908f8d8e8b929d8eU, 0x8b988d8d9787988aU, 0x95968a998f9e958fU,
  0x9f9a9c9997979391U, 0x919093949a889584U, 0x958c878c888c90a0U, 0x8b93928e8c879096U,
  0x938e8b998e909395U, 0x8c9e8c93889f8f9bU, 0x9d8e8d9190988991U, 0x958993939d8e9087U,
  0x968d96959d8c9a85U, 0x998f929d8691849cU, 0x978b8d959b918f9aU, 0x9794a18990918c94U,
  0x899488938b9e9592U, 0x9f8c8f8d96938f8bU, 0x9a9287958f8f9894U, 0x998d9493919a8d93U,
  0x9b8693a19d91898eU, 0x99959498948a958eU, 0x9495939d8a928c94U, 0x958f8c8c8493909cU,
  0x8d9b9a858e948a8bU, 0x9c8e919d9c9a8986U, 0x9596958c8b8e8c9dU, 0x928a9e989a8f9f91U,
  0x9697999b95859888U, 0x959a979589909496U, 0x97988c9a959d9a86U, 0x948a96929b878d8fU,
  0x999786928e9a9493U, 0x95989c949788999aU, 0x8a94949198859697U, 0x8c9e889c969e9593U,
  0x93999c938992908dU, 0x9c88968f9b9a9595U, 0x949b8b8f9b90968eU, 0x909498938d9e8b90U,
  0x8c85939492929a95U, 0x939290978d928a87U, 0x8c8f8e8c8f8e9797U, 0x8d949e968d98898cU,
  0x92989b8898909994U, 0x958e909998978f91U, 0x998da099978c858fU, 0x8994908f93909b91U,
  0x94959293939d9390U, 0x998d9e918e939392U, 0x8a8e92918c8c9692U, 0x919e949a90909993U,
  0x8e8d88968d8d909bU, 0x8d878b8f93849890U, 0x7375999a8f90918aU, 0x6e6aad5d966ba163U,
  0x85ab7b6769857c83U, 0x646b725266a06788U, 0xa1ab92a88f9e948eU, 0xa7b08570888587a2U,
  0x908d9e999d939882U, 0x9d89a09da48c9193U, 0x9d9698919a9f8fa5U, 0xa1929f987aa38fa0U,
  0x938c95919b8ca498U, 0x8c978d9ca5a89187U, 0xa0947ca88aa58b98U, 0x9494928f9c93a19eU,
  0x989e97a989829d8bU, 0x7b9e8f999d998fa6U, 0xa19aa299a19d9582U, 0xa395858aae8ea58eU,
  0x839b8f908ca6a49eU, 0xa9939b959e9785abU, 0x997db584a4939094U, 0xa09e94a888929f92U,
  0xa0ad929b7fb4939bU, 0xaa939c93a5a4a999U, 0xa39c9ba1a58f997eU, 0x939e8aae86a7929eU,
  0x9b98a6a1a58e9094U, 0x88a0a89fa08ca58aU, 0x82a87e979d97a3a2U, 0xa296a38696a4939eU,
  0x97899a819c80a292U, 0x7f9c96a2a0a79090U, 0x9a8e9b9c968a86a4U, 0x837c9e898c94a0a0U,
  0x9b99a89d86a2a5a2U, 0xa0a5979282988891U, 0xa286929499a09a82U, 0xa099949a99968a80U,
  0x9686889b848c9194U, 0x7f96a29d90859b97U, 0x7ca1a9969c769978U, 0x7796776e89979b90U,
  0x788f81719aa78c91U, 0x8f8f90837a758182U, 0x73838a78847b6c95U, 0x776b9490838b8e71U,
  0x8184718b97859498U, 0x8a899b898ca48e95U, 0xaca6958b8d8191a0U, 0x8d8fa69bb3bb99a7U,
  0xb29ca6c6b6a8939eU, 0xa3979b828ab891beU, 0xbea7b7b098b3b7a6U, 0x99b9b0b9aea28493U,
  0x8579ad9873bca38bU, 0x8c7f776d8ca2a29eU, 0x959099946f919382U, 0x9e9a8f72687e8179U,
  0x91998f8f949c9798U, 0x948f9a93998f9c96U, 0x9a959793938e9687U, 0x989a9391968a9d98U,
  0x8990929a9190929aU, 0x8a898f939097888eU, 0x90938d9991959897U, 0x87969b919b949988U,
  0x928e879997979192U, 0x93988b9793899193U, 0x939993988d97938bU, 0x92939694918a958eU,
  0x95978f949c9d9a9aU, 0x8b948897998f9686U, 0x95968f988e95998fU, 0x909493908b88968aU,
  0x949691968c8c8d90U, 0x88908a938a8b9d97U, 0x9b90998b948a9390U, 0x888f8f878b999a89U,
  0x9a8b97919199938fU, 0x8d94969799888b8dU, 0x918e978895929a96U, 0x8a8d909193948b95U,
  0x929489928c9c9499U, 0x8e988e9b8f969d90U, 0x9a9497918f919a8dU, 0x8c96948e95908d8cU,
  0x969490969b9a9898U, 0x9990989699909a9aU, 0x958c969b8f8d8d94U, 0x92928999908a9489U,
  0x98889b928b909693U, 0x8d8e8e8d8c9c9798U, 0x8e91888890919692U, 0x929790948c94939bU,
  0x9b968b8e948a8b98U, 0x8b9596928f918c99U, 0x958d968a9a8e9b89U, 0x89938c898b949689U,
  0x889999978f8c899aU, 0x95909493899a8997U, 0x8b88978d97999690U, 0x928b899b8a979791U,
  0x8d888e9487978c93U, 0x8e8c96978d96979aU, 0x979a949b90958b8aU, 0x95969490998e8996U,
  0x9a8c9791958e8e97U, 0x969a89898d8f8f95U, 0x929b958d89998e9cU, 0x8b8a8e938a8c9797U,
  0x968b90978b988c90U, 0x92908f988e918e8eU, 0x92979c958d908f95U, 0x98989b998c978e93U,
  0x828c977a89938a9bU, 0xaaa988b666cf8dacU, 0xcda2ad91a18d83a3U, 0x9c83a5a3ccaeda93U,
  0xabbaacbab0ce9bc9U, 0xc2acbd9b8aad9cabU, 0x9287a09fb9a89cabU, 0x9d8299b3a7bc9e90U,
  0x9f9e8f898b97a4b6U, 0x93a4a5828c85aa8bU, 0x94b383a09d8994a0U, 0x94a8aa8987997182U,
  0x95778f8bab85aa94U, 0x8d9c9496ac9e8a88U, 0x8281889b979395a3U, 0x989ba77ca99c84a1U,
  0x8d899c829493928cU, 0x977c869aa192899eU, 0x97969f909a989290U, 0x98928ea98a7c8493U,
  0x827e9aa69a9e9a89U, 0xa899969a8e9b9f84U, 0xadaf8b8280a1a383U, 0x9da67ea48f8b8a89U,
  0x97968ca39d859290U, 0x848892989e819e9bU, 0x729d988f9e979588U, 0xa38e91968c8d8f90U,
  0x8a8d987d93939395U, 0x898a888b99968287U, 0x938c849599a97489U, 0x9778868f9292968dU,
  0x97918899817f978bU, 0x938b7f9e67879099U, 0x8d8b8f9598809194U, 0x758989898e879270U,
  0x8ba96f7d99939fa0U, 0x8ba59a8a97807b86U, 0x83878f879b6b8589U, 0x5983919895928b91U,
  0x9095948b7c968077U, 0x82826d745f96a794U, 0x9f9c8d746d8c7583U, 0xa28184737a787867U,
  0x766e61a5aa928489U, 0x938176a091998279U, 0x75756a9f658b9c91U, 0x93a88e868f909484U,
  0x89937a7a8290bc92U, 0x97c59a8fa290807aU, 0x958b7581908a939bU, 0x8393a084bd8790a8U,
  0x7592a48a82868ba4U, 0xa094b78c8ba08cbeU, 0x9c75a57196bd9ea0U, 0xae9991a891b4bc8fU,
  0x909e707e8b6d689dU, 0x94948c939a838d60U, 0x949b8f939097919aU, 0x9c9298978b8a9392U,
  0x9b958c939a8a9692U, 0x998c978a9c969a94U, 0x8b929091968b988eU, 0x9a9890979b8e9092U,
  0x898a8b8b948e8d88U, 0x959599989689998bU, 0x9c9594978f8a918eU, 0x8e8d98989a978998U,
  0x8992928c8b8d899aU, 0x8c95949095918989U, 0x8f9596908989979bU, 0x8f889b8a929c8c8bU,
  0x8d89898a8b9a9596U, 0x9b9a8d9a8f9b9690U, 0x93959c949c94928cU, 0x9b959c8f88998d92U,
  0x978c9891909a8e95U, 0x8f969b88948d919aU, 0x918c97908b968c8eU, 0x998998969198918bU,
  0x8d978d94918b958bU, 0x8d998b8a908c9b8fU, 0x98998c9a9a9a8b92U, 0x92928a8e90918c95U,
  0x9a92948d9a96959bU, 0x95988c958c92919bU, 0x8f969b9b8e9c9495U, 0x928d929195959491U,
  0x928b8b938a939497U, 0x8e9b948d8a919696U, 0x8e95928992898c93U, 0x8c8f93908e908b89U,
  0x909399968d9b9390U, 0x8d938d9094969a9bU, 0x8a8a8e909b89908dU, 0x8e929a8b93968e89U,
  0x9a9a8c8890909189U, 0x998b8e8e9189908dU, 0x94968b958e999389U, 0x968d999498959291U,
  0x98908b8e94999896U, 0x888f978c908a8e99U, 0x9a8e8e9092979193U, 0x9a8e988d93948a95U,
  0x8f998c95988d9498U, 0x978a9a9491988e90U, 0x988b948e9399968fU, 0x8b97979b9b988d95U,
  0x8f999690908e8f99U, 0x988f899993939395U, 0x948d90918a9b9798U, 0x919a8d958c8a8992U,
  0x928b918e89938a94U, 0x91948d8d98919492U, 0xd981ab7c4d7c8b8fU, 0x8db395c1616cbc6aU,
  0x66b56dc38db47566U, 0xbe8eb6988464a85cU, 0x7388aa91b993beadU, 0x7dba9baf95afa285U,
  0xb2a88a798aa287a1U, 0xb37fad7ed290bc90U, 0x89ad8cbfa9856b88U, 0x8a7e8ea48bbb8cbcU,
  0xae9b99809895b39eU, 0x8ea293a48a8ea289U, 0x929a7e9b879c809fU, 0x888c9a88a79a9a88U,
  0x9ba17ea39b91a19dU, 0x96a09a948e9c80a5U, 0x9688b29a9895a6abU, 0x9799a18e96838a85U,
  0x8289979f81a08c94U, 0xa58d98979aaa9692U, 0xa68390839591a08eU, 0x959794a996a5958bU,
  0x9fa5a2a391938e8eU, 0x9c91808e9593a994U, 0x93ad959e918f9793U, 0x90957d97999ba097U,
  0x9797948d99899b8aU, 0x8498928c98899e94U, 0x83968c98948493a0U, 0x87989884988e8d92U,
  0x948d8e7d817b948fU, 0x83948d888c987d9dU, 0x8d8a96a59094798bU, 0x9585918b8d867c92U,
  0x7f808b8c88a09c82U, 0x949d7a9678938890U, 0x88828e808385898dU, 0x87818290977d9f76U,
  0x848a80927d86837cU, 0x9577828273859998U, 0x7d93946c8d8c9a8aU, 0x75a180c276a98765U,
  0x957870897e7b6b7cU, 0x846c75739b79b97aU, 0x73aa869479869a90U, 0x91948b8d7a7a799fU,
  0x9f83917391918389U, 0x908c989487909a90U, 0xaaa998a984a07195U, 0xaf82aa96938ca598U,
  0x98a795a2a096a497U, 0x98b48aa589b99a82U, 0xd1938198ba96a79bU, 0x8aa2a19daf91b795U,
  0x6fac8f9d767eb794U, 0x589482906c898ca3U, 0x709581479d6d835fU, 0xaebbae9e909c9465U,
  0x9993a19693a6a7aaU, 0x9da8aaaca6ac9b7dU, 0xa19b7f90a4a08d96U, 0x9a8f908878a289a0U,
  0xa390a69797829ca0U, 0x8091a1a28e847f72U, 0x837f81918ba39c97U, 0x97a2967b9c9f979eU,
  0xa99da2897b89998eU, 0x86929caaaa94829cU, 0x9a799baca28f8b84U, 0x9f888a8498aa9aa2U,
  0x9fada39a789da296U, 0x949fa69e87898aa0U, 0x8480919ca1a58f80U, 0xaf9c889e99928d7cU,
  0x9e9c848c8a8b939fU, 0x9195a9b08f81a4a2U, 0x8f9fa59b94708093U, 0x7c80929f98b0a48bU,
  0xa5aa97849a9d9d98U, 0xa39d9975879599a1U, 0x8e9393a19b8f8098U, 0x8f809d9692968183U,
  0x84777c9a9f9ba8a4U, 0x9da3ad9891a0a09fU, 0xa49a918d7e8a9193U, 0x8a89858eaea68886U,
  0xa2948d9f99929182U, 0x98898281878f95a8U, 0x929ba5a991829692U, 0x8aa0a2938a88898fU,
  0x828a949295b19891U, 0xae9a8f829d938e96U, 0x968c977c7b99828dU, 0x967f97a5a08d8695U,
  0x91949c90859b8a7bU, 0x8f887f8f8791a49dU, 0x8caf9f888ba2988fU, 0x999b9a9782788e7dU,
  0x84958796a6a98197U, 0x988b8d909c8f987cU, 0x91917e8a998c8bb7U, 0x859aaf9890879a98U,
  0x8b9f8c908d8a8998U, 0x8a918e878ca7a790U, 0xa29e918999938f8dU, 0x998d8d958d99838eU,
  0x8a8284b2a9889096U, 0x838f948d839f8996U, 0x9e8b938b728aa0aaU, 0x859fa38190979890U,
  0x9a9790a19384897bU, 0x958e7ea2aaa28694U, 0xa19593998890979cU, 0x8a8ea09c9590acb1U,
  0x9392929b9696919aU, 0x8896938c968c939cU, 0x908e91899295969aU, 0x998f93939a94948aU,
  0x938c8d9a9a949496U, 0x929593968d8c898bU, 0x959b9c9890949b92U, 0x95969b8e8b918b96U,
  0x8b95899b91949895U, 0x9d9b959a99948c8cU, 0x8e958f97928c9390U, 0x889699919a918b98U,
  0x9a9497898e888c96U, 0x9590918e978d8d9bU, 0x97909791918b9193U, 0x999798988a969395U,
  0x8b9a8a8c8f9b988bU, 0x98998d9b8e97968cU, 0x918c98878a8c8b8aU, 0x8b9b8d908b8d969bU,
  0x919f8d8a89948c90U, 0x958c89979a8b9399U, 0x9c92989a969a9787U, 0x95938d9194969a88U,
  0x9a88928c93949696U, 0x959c8f8d8f8e8c90U, 0x879c8e969798918cU, 0x968a95908c8c8f96U,
  0x99958a9194928c99U, 0x8d898c968b938c97U, 0x8d918c9689968997U, 0x8c8c989b8b8e9a8eU,
  0x88908a919b919f93U, 0x909c98908b938e91U, 0x9b8f9a8f89918e8eU, 0x9499978b95929287U,
  0x949490898f898897U, 0x8a878c92909b8f96U, 0x8f91969c90939794U, 0x8f98899587969294U,
  0x9a899b8b8d91949aU, 0x8e8b8d9388938f8fU, 0x938c9996928c9490U, 0x928e8b9d9a918988U,
  0x9c93938f8d90958fU, 0x898c9a9a8d9a8e9eU, 0x9a9098908b948f94U, 0x9b978a9a9691978aU,
  0x9b908f979795948aU, 0x999a8d978e8b9197U, 0x8b8a9a988f9a9392U, 0x968d9f9497909997U,
  0x8c979a9192959090U, 0x9a9b8a9598908c9cU, 0x8f9b9b8e8e909689U, 0x928b8b9097908c95U,
  0x80939c91949a9291U, 0x95a6928c90c19e9eU, 0xbc8d99a0999bb6a8U, 0x8ca7aa8cad919790U,
  0x898c939e9795a09cU, 0x8eab8f8aac9d73a9U, 0xa47faa8f9a849e87U, 0x8a9b8692a59c889bU,
  0x9f7798a7759b868cU, 0xaa8e9a8e9b949fa6U, 0x8f989fa67cadb081U, 0xad9f7796838f839dU,
  0x9a8ca988969ea981U, 0xa2a582aa9f7e9386U, 0x85968592869b9595U, 0x9695a2a89683a69aU,
  0x959aaa7b9f909e8cU, 0x829388a6909a9f94U, 0x99a89e839cac799aU, 0xa0819d8e928d9699U,
  0x8e9f9194a7a380a8U, 0x977dab9b7f91819eU, 0xa2808e8b9b8d96a0U, 0x95929d967da99b76U,
  0x9d98729e8c9c7e9dU, 0x927f9b929c9e9485U, 0x9b968aa3a478998dU, 0x7f949190859e909cU,
  0x9a8d989ca3869299U, 0x7fa192709b87978dU, 0x868d7f97929d989cU, 0x8c9b9f81948f8293U,
  0x8c798c83948b9f97U, 0x8c978d9590957f93U, 0x9d85929584949292U, 0x898e948c95989a89U,
  0x98978f968f91867fU, 0x8c9170878d948d90U, 0x90819b9c8b92a08bU, 0x848f7f958f7a928aU,
  0x7d8a868b849b978fU, 0x98999292938f9d94U, 0x8d8b8171878e9181U, 0x938d7c959f92959bU,
  0x898d8d7f83817f97U, 0x94809588958d9e9eU, 0x7f96a1998b958691U, 0x879183897e8b8884U,
  0x858483948d9d968fU, 0x9a8f89828e949380U, 0x91958286948c978fU, 0x87979da9948f8d8aU,
  0x898896919473819eU, 0x818d96809a9ea08aU, 0x9aa092868489a08cU, 0x899a8a7692a18f90U,
  0x928b8c97998f8987U, 0xa382938597888395U, 0x958abd789899cdbcU, 0x9abaa8a99c98869cU,
  0x997f919686a770a3U, 0xb49a969294727b93U, 0x727a9c8a9298b79eU, 0x94b398a793959495U,
  0x90889f7175958a87U, 0x92878d91b19fae95U, 0xa1b08f87979c7078U, 0xa27b7489909385adU,
  0x9893a299ad9487a3U, 0x9593a69c7e7b9086U, 0x79888f8984a998a5U, 0xb19aa6908da6967fU,
  0x9d8b72798ba89491U, 0xa1b1a1a797a88e8aU, 0x9e94969589707297U, 0x7b809794aa949c89U,
  0x99928d9a939b9289U, 0x97918a737e9891abU, 0x969fa28f9f8c92a6U, 0x829aa4919b98627aU,
  0x8b6b7d8c959d8c9cU, 0xa28d969399958b91U, 0x9c86999a697b90a1U, 0x87929aa29c938698U,
  0x9490a18e86999266U, 0xa49067838a929591U, 0x9099889287a8a388U, 0xad998da58f76808dU,
  0x727d888b8f8b9492U, 0x908f90a0958ca48eU, 0x82958f6a8f968998U, 0x978c9c8b868f9395U,
  0x95919479a1906d96U, 0x9481878a9c9f889eU, 0xa88a9c9697a0869eU, 0x9c789b9a75848697U,
  0x9796919a94a3909cU, 0x959b9c9d7d9e9181U, 0xa49c83a6a08fa38aU, 0x83ac948789a48c7fU,
  0xa29681949189a59fU, 0x81af9a849e959b99U, 0x8e9b99a5a078a595U, 0x83a4908cae8c7a97U,
  0x908ba099a08d9ca8U, 0x9097b578ac848aaaU, 0x8a96b28a8db191a9U, 0xa68fa4a791a78ab3U,
  0xaf8aa395a9a59390U, 0xa68d889395a3a0a1U, 0xa89ba1a387af90a0U, 0xc4b6aebc9e829596U,
  0x8e94a1a88da6959fU, 0xbb8eaad7dcb1b49fU, 0x978c85b18b98a790U, 0x9e97998d9a8f88a1U,
  0x9894988e958f979aU, 0x9c9d8f8d8788938cU, 0x8b94948998888990U, 0x9695989b8e9e9c98U,
  0x8f918d989090898fU, 0x8e8b8d9a91929f8eU, 0x8f998f8f8e8d9a96U, 0x8d888b9a95988f96U,
  0x8e8b8c8e94908f95U, 0x958b919189939c96U, 0x9498919098959393U, 0x978c8e9c92988e95U,
  0x9d938a95988b8a8dU, 0x8e908d9d899f9a94U, 0x94968f978b8d8d92U, 0x88908b9096939795U,
  0x8991909c96919589U, 0x948c9b8f8f9d9189U, 0x978d9299969b9f8bU, 0x95a1959293988e97U,
  0x96868e8c908f9689U, 0x918c949795908a8bU, 0x918a8c9892968a97U, 0x899c8b9698919192U,
  0x8e879a9794979287U, 0x96978f8c978a9589U, 0x929a96948b8e9187U, 0x928e8d9b87938995U,
  0x8d8f9986958e9697U, 0x938c919e8f968a93U, 0x90948b888e96859aU, 0x98988f918e8a8b8aU,
  0x86948a9094928e8fU, 0x9595999789928c92U, 0x9687908f949a8d8eU, 0x888e92968b98958bU,
  0x97978b928e9f8490U, 0x9d97938892988888U, 0x978790958e988888U, 0x889a8e9b8d908e94U,
  0x978b8d9c99828896U, 0x8592969492979f84U, 0x9695858d908b9890U, 0x92928c9388958b90U,
  0x8a91928c92918e92U, 0x9796878c908f898bU, 0x908c93949a8e849bU, 0x8c958d93958e9797U,
  0x9a8f999693889195U, 0x988e8c8e919f948eU, 0x99968f8e96999285U, 0x968e8c989090998aU,
  0x9a939a948b92958cU, 0x9d9087958b8e8895U, 0x909695878d909a91U, 0x6f697f868e899484U,
  0x8fa8c0bda79ca291U, 0x998e98676d778ca3U, 0x9fadaaa4abb2b2a9U, 0xa7a5a596899e8e72U,
  0x9a816b90aaa899a8U, 0xaf9cac9da593937cU, 0x8791849471779a9eU, 0x789ba5a59f9e9c8eU,
  0xa194928e8c7d886cU, 0x73897f81919ea08eU, 0x9eaa949a8c889997U, 0x9798967b89768696U,
  0x847c879c9f939c93U, 0x8f958b92868a7b8aU, 0x8a73838d83869f8dU, 0x979d978b92929091U,
  0x968e8d8e83909790U, 0x969688939596828fU, 0x9b8e918e99978a79U, 0x817d819f9489899dU,
  0x9992938e878c8083U, 0x8682888e81819d9aU, 0x829d99958b94948eU, 0x928c9c938e7f8882U,
  0x898488918c889a98U, 0x85978b9e9395918cU, 0x97949b8f8291989aU, 0x8c9291949b90a397U,
  0x88a2959297929a8aU, 0xa1897f87969b9598U, 0x8b97a18d9a9f91a4U, 0xa29c9a8c89979a8cU,
  0x91928f929c92869eU, 0xa1848d93938b9389U, 0x949a849d9d8e9495U, 0x83879ca5839e9e90U,
  0x8c929a99a2878e95U, 0x9c8d89908696a78dU, 0x9fae859993a08595U, 0x92948b878f8ea391U,
  0x8ca09c989f848b9aU, 0x77989991a19e929aU, 0x9893a59aa591a69dU, 0x8da0aa7c969ca292U,
  0x96979b9491987f93U, 0xa0849b81abb2809dU, 0xa477959a91908d85U, 0x8c89899a8b9c80aaU,
  0xa88ba5a77fa18b84U, 0xa388948c85758d89U, 0x738997a48ba59c88U, 0xaf957f9997899180U,
  0x918c8d7a8799ae81U, 0x7b9c828d91748599U, 0x617e81888ea2948cU, 0xab8f8783a276917bU,
  0xa68695aa9f8d959bU, 0xb8a4987c958abdb2U, 0x90c49caf97a0949eU, 0xc09780a4929381a8U,
  0xa38eb093bb94a6b5U, 0x8fa0bebfa090b2acU, 0x81b095937faea499U, 0xa7968880a2a5b093U,
  0x9a9b9185919d8482U, 0xa1a188a692816a8dU, 0x7b7e8b94939f8f93U, 0x9c8b969598859784U,
  0x83a284868f8d9a91U, 0x9297949594909088U, 0x9b8187829f8b8581U, 0x9691949896899387U,
  0x8c9b89968b9f819bU, 0x9e7983878f949790U, 0x92989598a0959495U, 0x97969a9a8197958cU,
  0x9e8690958a9c8591U, 0x90839b8b9689a684U, 0x8e97969c8b90868eU, 0x96908c87868f878cU,
  0x8d8e8699a18e9497U, 0x968f958e8a888d84U, 0x8d8e7c8d89898f9fU, 0x899baa8e9e92857eU,
  0x9b8e869995859b8dU, 0x80908b8599a88f9aU, 0xa290a7948c878d99U, 0x93888a8492939398U,
  0x8f86909594a19691U, 0xab9786919393809aU, 0x8f73969793958e99U, 0x888e8c9d8a938d96U,
  0x8e8e97957d9c979bU, 0xa59a9a89898b9d8dU, 0x8d95818d848c9782U, 0x99947d9e9d9c9c9eU,
  0x8a96a387a48b8f7bU, 0x7e856b9c7c68a498U, 0x6ca89e89909591a9U, 0x8c85aa75866c8d83U,
  0x6ba0857cb099868dU, 0x8f7d89827fac7b8fU, 0xa88b9973a1838d96U, 0x8f9fa58987988385U,
  0x919682aa94a5799dU, 0x9d829c969da5978fU, 0xa891928a8b97aea1U, 0x9ca2999f74a7a292U,
  0xa298a7a183918296U, 0xa1949098a78fa270U, 0x79a87eb49f979a8dU, 0xaa93939aa78ca0a6U,
  0x95a7a77fab8ab5aaU, 0xbf90af978b859ba5U, 0x91998ca1a2a9b790U, 0x9fac8aaf87b3887fU,
  0x998786ab918a9794U, 0x92999b92a48aa389U, 0x8fa497938e8f9b9eU, 0x869c8c9288919398U,
  0x888e948899959e86U, 0x989d8290a88f948eU, 0x99818d8796938ba0U, 0x938b9287968788a7U,
  0x8c89a092898e9598U, 0x8a9088928c8c9895U, 0x959095908c94908aU, 0x9997948882989592U,
  0x8c8c8d8e878c9294U, 0x93908ea49395868bU, 0x8d8489979d889796U, 0x9390988b8c86a49dU,
  0x94a48b98958b8c8eU, 0x9295978a8d8a928cU, 0x9a92929297929a91U, 0x96988581988f8d95U,
  0x9b95958a8f8c889dU, 0x9a8aa28e948a9297U, 0x928b9390868c968aU, 0x8699949b909e8e89U,
  0x9c959292868e908bU, 0x9191979396939a8dU, 0x8e9d8fa0878e9093U, 0x839484918b8f918cU,
  0x8c8d8f868e95988dU, 0x8b91918a8b8d829cU, 0x81838a9b8a8c8e9bU, 0x97878f9290919284U,
  0x968b8d8a86959e89U, 0x998f818c8aa1898dU, 0x98938c918b848990U, 0x8f9191929e869489U,
  0x958f8a9a929b919bU, 0x98828c8784889392U, 0x959ba0938b8ca48aU, 0x969f909f89898f94U,
  0x9394918f9396898dU, 0x939794929d959286U, 0x95968791928d8a94U, 0x8e978e888a999795U,
  0x918b9e93a08b8d85U, 0x928a868f92988e99U, 0x938a93928c9c8c9bU, 0x9f9597838b929083U,
  0x89908b9889978d86U, 0x8b978d958b9f8e93U, 0x8f8c998c868e9a9cU, 0x89a492a1999f8d94U,
  0xa2978a97919e948aU, 0xa7958d93a991a196U, 0x96968998948c919dU, 0x90958a998d8b8d92U,
  0x948b8a998e928b93U, 0x8c908d8b93959498U, 0x969a96958d8e968cU, 0x968d8d999190899aU,
  0x9689968c9a989489U, 0x92988e9b938f8a98U, 0x999489938d969a93U, 0x9196989b8898938eU,
  0x92988e8e8a978998U, 0x91978c96998a9692U, 0x9b9b9b8f8c8d8d95U, 0x919a8a999995978cU,
  0x928f8a9a9b9a8c89U, 0x908b89929b979590U, 0x8f99958a9a9a9a95U, 0x8b9c928f8b97919aU,
  0x908d90929399928eU, 0x93949c9492899899U, 0x948e928f8e919596U, 0x9693928d9b92999cU,
  0x939b8b89938a9a92U, 0x9b8b979b9d969397U, 0x9394929c8f9a9b9cU, 0x8b978d9389959a96U,
  0x898d988a8f888b91U, 0x87968e96908c9c98U, 0x89949388998a9a9cU, 0x91999593898c8e96U,
  0x968c8d98908c9094U, 0x968a9c8c92949289U, 0x8d8e978e90908d97U, 0x92959b98928b9089U,
  0x9591909a95928b92U, 0x988e898e90968b97U, 0x8a8d8f949b9a8d8eU, 0x8b99928f8d93988cU,
  0x928a8d8f93958e8dU, 0x908994948a999594U, 0x8e8c8f9794909b8dU, 0x988e939b8c8c8996U,
  0x958e9a8f93919193U, 0x9897939c8e8c9791U, 0x9a9895928d918a89U, 0x8b8f9a939894979dU,
  0x8a8c9a8f8d8f9b8fU, 0x89978f8a98979a93U, 0x9a9c949892928c8fU, 0x9593898d98999288U,
  0x948f9897938f9393U, 0x8d8d8e9c8b9a8e9bU, 0x8a909a8b8c988a8cU, 0x908c8d8e8e8c9690U,
  0x9797958f8d9a958eU, 0x999b88919c9a8d8cU, 0x8d89938d90989391U, 0x8a7f94868b979a93U,
  0x8c98928f989c8d84U, 0x90958e8c7e998699U, 0x8d809189918f919aU, 0x86a190989b90978bU,
  0x8689859c8f9a8e8eU, 0x9c8d9a8a968c98a6U, 0x91a0a29598819889U, 0x8a908a918b90919dU,
  0x9b929d98959c8598U, 0x9c888b8994828e8aU, 0x85998b988f989997U, 0x96919c9384928a94U,
  0x9d8a957f988c9697U, 0x968f85979d98948bU, 0x8f91949587908792U, 0x967b989593829693U,
  0x959b8c91a0939485U, 0x83878e928d939198U, 0x8a86998c94938a94U, 0x899b9d8d8f86878aU,
  0x80978a8d8d97879eU, 0x8695929794938795U, 0x9b83887e8b869990U, 0x82988a90949a978fU,
  0x918e95938f978998U, 0x7f87967b908d9189U, 0x858b968f998a9787U, 0x92958f8483968a8aU,
  0x8a7c8886888e9395U, 0x939f959093948f8fU, 0x8f8f8f8a8d8e938eU, 0x9a879690a2908aa1U,
  0x8c99a09088808d7eU, 0x8f927e8d94888aa2U, 0x9285918d8991938fU, 0x9d8c877f91829982U,
  0x8d93878e969b8b96U, 0x9497939483978d8fU, 0x877f8b89908d8685U, 0x9287899593959884U,
  0x8e9e9485809c8592U, 0x888b908e918e988dU, 0x8e968f899c93808eU, 0x8f8b8f8d82958f7fU,
  0x8d857f849e8c918fU, 0x9a8a9c9880899989U, 0x878a8e928d928694U, 0x8d909f998f968c89U,
  0x91998e8392819094U, 0x879b9281839a9a9aU, 0x958798958a8b8f92U, 0x91898d8b91898587U,
  0x9589849f88959d98U, 0x8b94928b868f8f93U, 0x86909b94977f9e8dU, 0x9a948e899c87967eU,
  0x94b08d96a6849a86U, 0x7996879190a3a092U, 0x9a9f9e97ad918b9fU, 0x879d9c66838e9aa0U,
  0x8798949e8c9e8a96U, 0x948f8f88a9917080U, 0x946f818ea0989b8fU, 0x9a9b9799979f8598U,
  0x96819d9d83878e96U, 0x938f9290948f9496U, 0x9ba29b9a83a49c78U, 0xa5918187958f9d8dU,
  0x90959c9d9e949085U, 0x9e978c9897878095U, 0x77878ea08f948f94U, 0x998da0979a839798U,
  0x84a58e7e938f9991U, 0x959e90928ca39b8bU, 0x928d89889d938191U, 0x8f82808c9fa29796U,
  0x969b9f939d8d88a6U, 0x8f98a59273938d93U, 0x8b8ca0989b9e999aU, 0x98a5999c979a907aU,
  0x9b987b85899c8d8aU, 0x969a9a99a59b908cU, 0x8e919c9f91808793U, 0x808586989a9a9ea4U,
  0x95969b908a91a38cU, 0x95988e888a999e8cU, 0x99a28e9c94929597U, 0xa198899a9b908893U,
  0x997c8687a289949eU, 0x9b94a39d939192a4U, 0x8a9fa39479899395U, 0x898d998d9c9da695U,
  0x9ca09288a1958d85U, 0x90857c9195969292U, 0x9b8a9da89d908d8eU, 0x948f8fa189849390U,
  0x7c93909d93a09993U, 0x97a39a9a9b8c9095U, 0x959b97828b919897U, 0x89909b8f9fa59496U,
  0xa09da09c938f8a94U, 0x938c93979b969ea7U, 0x8d9797919891989fU, 0x9d9d94957f989a95U,
  0x8e929e8e9a9b9f8cU, 0xa094968f8c96948aU, 0x978e7b95888e8a95U, 0x929b9e9d9c989591U,
  0x94888fa08e849c95U, 0x8ba283968b9aa997U, 0x9da798969c9a9d96U, 0x9d9fa19497848e95U,
  0x8f8d98999e9996a8U, 0x9595999694988f93U, 0x8f8c9a989b96909bU, 0x938d958d9998948dU,
  0x899c97968a969992U, 0x9190988b91919094U, 0x949198998c96978aU, 0x9b8e949b8a928895U,
  0x8b8f998c9b8c8893U, 0x978a988e8e97928bU, 0x8c93948a95919589U, 0x94888d8d9a989493U,
  0x908f918d8d948e8cU, 0x94958f969696968eU, 0x8f989b8a8991899bU, 0x958998999b95978aU,
  0x9a90939b8e8d9288U, 0x8f89928a91979889U, 0x8d8b91928d908c91U, 0x969a99988e8f9b8cU,
  0x8f949b8c8e979195U, 0x908b8c90948a9498U, 0x8b8a8a96938f8a88U, 0x8d959b978f91928bU,
  0x9095898a9b9b9997U, 0x888e8e998a8f8c89U, 0x8b98948b92968a99U, 0x938f9b8c94889796U,
  0x9988939499969b99U, 0x949592928f959994U, 0x8e938f99998a8d8eU, 0x909b8b9398919993U,
  0x928c949a9394968cU, 0x8a8e998b8f93938fU, 0x958b928a8a9a918cU, 0x9a89998b8d97898bU,
  0x92928d8a8995898eU, 0x938e8b918d89899aU, 0x968e98959a92919aU, 0x8d9a8d958d989b96U,
  0x9b9a92998d969589U, 0x90938f8b9796938eU, 0x8b9a928d92909b8aU, 0x978f98918895898bU,
  0x8f888a8b8a9b8999U, 0x8b8c91939693898eU, 0x928f90989892918bU, 0x94968888938e8e92U,
  0x909788948b8a9498U, 0x90908d97928a889bU, 0x9091978b9b9a9793U, 0x8c99968e968f9989U,
  0x9a9b898f978b9199U, 0x9a8c889299918996U, 0x8c8d94999692978aU, 0x919097968e948c9aU,
  0x88929b9997898994U, 0x92848e9096978b98U, 0x8c89858b775d7f7fU, 0x6c8a8086858f9ca2U,
  0x8ca6a38792917e7dU, 0x8a8a81709e7e8997U, 0x79829595a1948b8fU, 0x99888c8c907866a1U,
  0x7a6d9a7e8f988897U, 0x9389999b87869094U, 0x869195746aa48687U, 0xaa8e8b988aa29584U,
  0xa59794918f8c7675U, 0x887274a48e848890U, 0x909186aa8d958d8dU, 0x888c8d9374879d95U,
  0x87a198919594ac97U, 0x8aab9d8588848f81U, 0x909a72879f918886U, 0xa1828f8ea98e7c91U,
  0x977d868f936f799aU, 0x70868d96858696a0U, 0x9199a49f8f898d8eU, 0x8c8b826c889a9e79U,
  0x8f967a8c9ab1967fU, 0xa49a908f89897087U, 0x8f7581919c7a8c91U, 0x89919ba6968a908fU,
  0x8e96859276828ea1U, 0x8591a2778a92a096U, 0x939f9f859a8f9876U, 0x8782657d8c918797U,
  0x9e8a9297a7948a9aU, 0x9e949893896a8d90U, 0x738a98a1828e8f99U, 0x9194a3919696908fU,
  0x9194956b808a9781U, 0x859f7b8e96a39a96U, 0x9ea29092948c6a88U, 0x8b6f8c88a1849695U,
  0x8097989f95909c8bU, 0x8b8981896591899cU, 0x888a9f7e888ea696U, 0x9b9f97868a8a966aU,
  0x89976e8b95a17e93U, 0xa38d9691a68e9299U, 0x929094889b698992U, 0x6e8e969484978ca9U,
  0x8b8dac9f8b9e9096U, 0x97878e638f91a081U, 0x95a0818a9ba79382U, 0xaa99909d9093747fU,
  0x8d6e8c919086958fU, 0x828b90aea08a908bU, 0x8b8a93896c908f92U, 0x7e8c907e9897a997U,
  0x98ae988b968f8765U, 0x889768828ba5718aU, 0x70b9b09ab0a89e96U, 0xa49a817d8d9469b2U,
  0x9780bb7a9ea2a0b7U, 0xa790c0a4aa90a8a7U, 0x8199aa74a4b8767cU, 0xa56c64968c869488U,
  0x8087848988966b8bU, 0xa3688ba36d6c868bU, 0x6b859187a1877faaU, 0x8676a59f6493a572U,
  0xa5ac7a757e8583a2U, 0x88859a87799ca360U, 0xa99569b1be777583U, 0x7e797e917f968e8dU,
  0x9d8c829d996cb6adU, 0x68b4ac7672868c86U, 0x878d91a08d88a2a8U, 0x7d919d6fbab08a77U,
  0xa8807e929c92a68fU, 0x869a9694a0a06bbdU, 0x986fb9a98675808bU, 0x758d9b8690909099U,
  0x958a9a9974b0b18fU, 0xb39c84818298849bU, 0x9c86a68e8d91907aU, 0x9a9b75adaa7d788cU,
  0x79758f8c7d929296U, 0xa4988f9a9f75ada4U, 0x87b2a38886949086U, 0x839277a49f9a9e94U,
  0x8ba9a07d9faa887eU, 0x987a798299819295U, 0x7fa0a0999c927da3U, 0x9b85a0b071839492U,
  0x7d928e869d94949aU, 0x8a8c96a586aaad75U, 0xaaa36f8e91898fa6U, 0x8f8baa9492a59c89U,
  0x90a0789ba2748689U, 0x77908c87929a9a95U, 0x9c8a8197987b9e92U, 0x83939c8b969d8e8fU,
  0x91a192998697a29cU, 0x938b9d72a98a9285U, 0x8d898b9f96828f8eU, 0x808c8c8a919686b4U,
  0x8980a3918b8ea2a1U, 0x9c949d7f8b8a8674U, 0x9c978399728f9b90U, 0x97a28199988d6f84U,
  0x958286989691a387U, 0x96a5848a9d6e8f8fU, 0x769e938d78948d8dU, 0x8e90908e9f8285a4U,
  0x90a5b37a8dbc987cU, 0xa4ac9fb0b0b59e9fU, 0xb5a1a49db5b8948dU, 0x9890978aa8a4a499U,
  0x9c9b8f969e86888dU, 0x96907d97928b8b90U, 0x958c9b94998c8eabU, 0x8e889a9c8d868b95U,
  0x729b989389979a96U, 0x9791968f86909196U, 0x8c968c8e9498948dU, 0x8b9988999f968f91U,
  0x8e9290939b918d99U, 0x98908b8c97949c92U, 0x8e998d9a8d859293U, 0x8891989588899098U,
  0x8b8b8a8f9f989792U, 0x9e8e899389918a8aU, 0x9d948e9a8c978a98U, 0x8b8c969e8d8b8a89U,
  0x8f8c93978c839596U, 0x93948e90979f9f91U, 0xa294928f909aa191U, 0x8b9d898c93899c8dU,
  0x8a8d9292998f809cU, 0x979499898f959095U, 0x998e96989693989dU, 0x859d99968d899197U,
  0x908b9c969996948eU, 0x99998b879b94969eU, 0x969f939896929288U, 0x9996948f918d9298U,
  0x8f8e9294a0858989U, 0x8e94959f97878e8cU, 0x8499938d849ea29aU, 0x9b979b958f97948fU,
  0x898d908d98929786U, 0x968c949a8d9b9c93U, 0x9088908f9b9a9397U, 0x8c9e92918f8d998dU,
  0x84959a998a9497a1U, 0x8b949c9a95998f8cU, 0x8a9b9d93a3959689U, 0x958f868d8fa4948dU,
  0xa3979c899b8b929cU, 0x9282999690879b96U, 0x9a969b958e919995U, 0x979b8b9b8b9b8e94U,
  0xa08e8aa1978e9e93U, 0x9ca8909188978893U, 0x8f8c839c95939a98U, 0x94a08f9da990959aU,
  0x9a8f918a88969d97U, 0x959f8f9195a09898U, 0xa299a791968e8c90U, 0x898c8b84a38f9098U,
  0x8f8e928f90999198U, 0x9c9a9d8b90998798U, 0x8c8ba18e908d918fU, 0x989588a588978999U,
  0x8c8a8d948888948eU, 0x9a909a92938c8d9bU, 0x8f908d8f96989397U, 0x888e9c8d908a9694U,
  0x9689918a8b898b9aU, 0x9b8a8f8a93908c98U, 0x8a959499888d9196U, 0x9599909087949899U,
  0x8c94978e9c87938aU, 0x91968c918c908c91U, 0x898d87908d978c90U, 0x958c959799959792U,
  0x94938d989b899398U, 0x93928f8c8c979696U, 0x95888e9698988a8bU, 0x9b98928c958c9a95U,
  0x9491949a8d8a9788U, 0x8e899094919a9498U, 0x9a978f9696939288U, 0x98939a8b8d8e9997U,
  0x9389899a958d9498U, 0x9a91899593948d96U, 0x97908f908f989395U, 0x899787919089999cU,
  0x939399989c879296U, 0x989b968c91889b98U, 0x889996998997909bU, 0x9293978f888c9593U,
  0x95908c9a9999938fU, 0x9297918a8a9c8797U, 0x8c99958b9391988dU, 0x8992978d9891908eU,
  0x919c999399928999U, 0x9a90888a8c8a8d8eU, 0x91958f8e8f8d8c88U, 0x9393898e9a93938eU,
  0x9795908a8a9c909cU, 0x9c9a9b88929a8895U, 0x97939091918e919aU, 0x9a8a96918e929a97U,
  0x9d8d8e97908b8a95U, 0x9b8e8c978b93908eU, 0x9a8d8c8d8b978a8bU, 0x908e91948c9b8d8dU,
  0x918f8b8d91988e8aU, 0x8f969b8b9b889a8cU, 0x978f9094989b9090U, 0x8b8a8f8c9b8d9099U,
  0x8d8d8f8b8c8a9090U, 0x8c8c969b93898e8bU, 0x999296918a969192U, 0x958a918d94938a9aU,
  0x918b939c958d9494U, 0x9a91959a9c99889bU, 0x8c938e8890959893U, 0x989a908a8f96898bU,
  0x94908b9a9895888bU, 0xc4bdb0d6c48cad9aU, 0x9ab49acfd3bcc6bcU, 0xc2bdc6bdc19ebd9fU,
  0xc0b383a8b192dad2U, 0x6f938c9f98c481adU, 0xa270a3b6ae84abaaU, 0x82a2a1768498a29fU,
  0x999ea6ae80aab1aaU, 0xa39f958a9b9b8785U, 0x9d978c9e96a2ad8eU, 0xa0a4859fa19489a3U,
  0x997eaca2a694908dU, 0x879284969292999dU, 0x9c94989892a39794U, 0xa6a18d8c988c9a8bU,
  0x8fa2989699959993U, 0x9b9086a29d9d8792U, 0x8c85879292858f86U, 0x868785868689a69eU,
  0x94a6958b97848794U, 0x8499938b847d9991U, 0x7e9a85949d9d8997U, 0x8e95847e96918a86U,
  0x8d9489878e98969cU, 0x859a93959085868fU, 0x8d8792968b8e8f97U, 0x92818c809f928a92U,
  0x92868d94848d8a86U, 0x967a7c9481957d9eU, 0x8c879f988a8e938bU, 0x9887838984888584U,
  0x8a8580818aa7938cU, 0xab858d957a8e8b87U, 0x858b7e999595918eU, 0x958882a2938f7f84U,
  0x85967b8e8a859c8aU, 0x7c9e8e928781a994U, 0x85af8e848f908887U, 0x8b847f7d9386948eU,
  0x9b958f85b4887c95U, 0x85828391768b7c97U, 0x897e999798869eb8U, 0x6faa9f7682978689U,
  0x9d84928d82ac8ba7U, 0xa287996da6977198U, 0x988e8b908a9b987dU, 0x9384828b6b8e7c9cU,
  0x8e81978c7e8d9176U, 0x968379868582887fU, 0x71847c9273908c7eU, 0x8796928c738e9586U,
  0x8997746a897b9b7dU, 0x818377748c859777U, 0x9f926c7d8c7e7785U, 0x9d9fa5828e6f7987U,
  0x536c637f819ba99cU, 0x8f9b978d9696818dU, 0x8f9191909d96919aU, 0xa08b97818e91908cU,
  0x948695939c8a9192U, 0x8b8e988b879b7c93U, 0x9082929d939e9092U, 0x94899c91848a8691U,
  0x8b91949790919890U, 0x94928c8e9b929290U, 0x9a918f9994999f87U, 0x91978b968e8f8998U,
  0x92908c948f868e8dU, 0x96899e8b9d92989dU, 0x90919c9287959096U, 0x8e999c8a908e95a1U,
  0x9e909f8e979b9894U, 0x95938b8a9a948f8aU, 0x8b848d8e8f929693U, 0xa38a8e9399918c9cU,
  0x86918e98919a9e90U, 0x968f9d998b988b92U, 0x919b9d908d8f8f90U, 0x8e938d989e929389U,
  0x8ba0899b8c8d8f97U, 0x95929b969d8e8c94U, 0x8d9c99939b8e8e95U, 0x979c8d8b97979491U,
  0x9c90938d8d988c92U, 0x908e93948d96988dU, 0x9c9590958a98898fU, 0x9787929793958e94U,
  0x9489938b918b9599U, 0x988b96948798978cU, 0x999b8ea08a9d959bU, 0x8f998b929b908e88U,
  0x9197949994939398U, 0x989e9b919c998f8cU, 0x999a979e8c88959dU, 0x89908d8a8f9a8e9aU,
  0x8a97948b8e939491U, 0x8f8f969192958d93U, 0x99948b9ba0939f8bU, 0x9b909c9a978f998bU,
  0x90958e9689929896U, 0x939b92979c938d9dU, 0x919495958b89998aU, 0x868f928e9a928c94U,
  0x989c8a8f959f9c95U, 0x9396979998899998U, 0x8a918e968b93979aU, 0x8c9698a28f968794U,
  0x998b9b8f908a978eU, 0x94999d988d98a19aU, 0x9599988e979d9193U, 0x9b97979a98989896U,
  0x9391888a9a939e96U, 0xa2969a938e958a91U, 0x99908b8f908d8b8fU, 0x669d88ab84aef0d4U,
  0xa9d6c2a09c6f7b75U, 0x5f6b81687c89917aU, 0xa7a86a76a28e9696U, 0x8496a29195ac9673U,
  0xa0978b97a9848e93U, 0x90889c7a8f949982U, 0x878c81a0a980949bU, 0x7a8d958e92896f90U,
  0x8e838e8e9c9190a4U, 0x8a9498888d949b88U, 0x9c99999888937f95U, 0x93969797aa978e93U,
  0x999a999f9d94947fU, 0x90907a8d979d8b98U, 0xa59c9d8fa48fa5a0U, 0x94ad9389967d989bU,
  0x879189aba2908791U, 0xa48c8891a79c8885U, 0x89838c7c93849e93U, 0x939a8f959f8795a9U,
  0x899fa08e7f82799dU, 0x83839a99a888989bU, 0x8c9b918ca0a29882U, 0xa493948677948b9dU,
  0x9b8c9b8e8d849f98U, 0x94929fa197958584U, 0x92837b8e979e998fU, 0x958e9b8e9190a29aU,
  0x9792a697868d9b8eU, 0x8d948ba087959aa8U, 0x92968a9b99988080U, 0x917789859183a294U,
  0x9ea49598a98b9c96U, 0x909da693908a879bU, 0x8b8b9393929392a4U, 0x908e8f9ba1999987U,
  0x8a907f848f9e8995U, 0x9e929f9b908c909eU, 0x8f89958d9276868aU, 0x8e749bac9baa979eU,
  0x9c8a7c81968a988eU, 0x87958882719daa87U, 0x929e8e8576818e93U, 0x7f8f928a8e897f75U,
  0xa37396828d828576U, 0x84a685797b868b7fU, 0x97a3a2b17e999295U, 0xab95878da9908984U,
  0x8ca3a8a9969ca97dU, 0xa1a77ea08d8ba2a4U, 0x86a5a897a7a2a793U, 0x9eb19598a085a57aU,
  0x95bab3969baa99a7U, 0xa297a087a3a1a9bbU, 0xbf83c4b1c8c2ae9dU, 0x999ca08c8f9887a1U,
  0x8d9890968f9d9092U, 0x908592899b8c8790U, 0x95878d8f8f92998bU, 0x898f8c999495998bU,
  0x9b8b898988949598U, 0x8991928d948c9a91U, 0x959a92989699878cU, 0x9c908f928b948d93U,
  0x9c99988c988b9689U, 0x969e889296998a96U, 0x988b8b919c9c9895U, 0x9a889a98958f918fU,
  0x8c9d8a9389909693U, 0x89988d998e978c94U, 0x8f8b90989c9a9689U, 0x898b9a94958e8a97U,
  0x998f979d8e99909cU, 0x89968a8b968a939aU, 0x8e90938889949789U, 0x8e938b8c88968996U,
  0x91929a878c928d97U, 0x8f8d89909394938eU, 0x9b8b8a8a98948f9bU, 0x8a8f9193968e8796U,
  0x8989978f99959c88U, 0x95918a929099928cU, 0x8f959694989e948bU, 0x8e9498979a8b9993U,
  0x939095949b91908dU, 0x8a918e8c8e899699U, 0x908e988997999b91U, 0x948c998b9a879998U,
  0x978e9196968e8989U, 0x998d979a8c898c90U, 0x8c988b879a9b9993U, 0x8b99918b97998c8aU,
  0x9691918d999b8e92U, 0x919190959c988f8eU, 0x8b8c99928b89989aU, 0x998b899b938d918eU,
  0x9e9a8a9897919299U, 0x8e8f8e968d89928eU, 0x8b93909488998e8bU, 0x9c8b9596998f9b8aU,
  0x87958e9494949e89U, 0x988e8a91938c8d8aU, 0x8f888e8f958c9a92U, 0x8b8f9a8d90968c89U,
  0x9a8f988f8c909a8cU, 0x96999a98979c8990U, 0x96979d988e949291U, 0x898d889094989a9bU,
  0x949690989797998dU, 0x8b99929794908c98U, 0x938d89949a8b9288U, 0x8d919698929a8b9aU,
  0xb5819e8b9a959096U, 0xa7bab1b39f9fb38dU, 0xa7b288b096aaab9fU, 0xa5b0a3b5b6bead96U,
  0xa2a78da2a89496b0U, 0x7f909ea1a6868e88U, 0x7e8797a59a849ba8U, 0x828caf7f91998c98U,
  0x988d87848781978fU, 0x8a9f9897989c7886U, 0xa57595999e8d7c8fU, 0xa08d869b989c9192U,
  0x91949ca66c91a191U, 0x998e8b9281888e99U, 0x8b97a29b858e9a76U, 0x939d6b9b868a9490U,
  0x949f8d8a94ac968eU, 0xa3978f8b90639688U, 0x6e968c9795928796U, 0x8f8c949d9a95978dU,
  0x81908d70a48d929dU, 0x8595958e8498a69cU, 0x949d96879d977baaU, 0x8b75ab8b898f8f7dU,
  0x968b86869da17f9eU, 0xa285989769ac8894U, 0xa18d8a9f8b85a199U, 0x8b9895987d98926eU,
  0x949168ab8b899c91U, 0x95978a879e9a9985U, 0xa09391978c75a37fU, 0x7ab07d9194828b95U,
  0x9187a193898e9c8aU, 0x839c7c7aae879a9dU, 0x7a89988b7d979295U, 0x94939181917c68a3U,
  0x8570ab858ea08e87U, 0x9a91968d918f8595U, 0x8c8c9b8680b87c86U, 0xc78389978c8e9296U,
  0x85929b908a8f8c85U, 0x968c7bc0989a9782U, 0x9ca89193b5a19592U, 0xa4a895ac8d94c483U,
  0xa0bf7d91a3a09fb0U, 0x94a2b095a8879f85U, 0x85a87d9a9f8fa0a4U, 0x869fb18e84ac8ea9U,
  0x8c989897917a858dU, 0x88929c799f95887aU, 0x8c7d757e83908295U, 0x8a83948c91a58193U,
  0xa46d938d7d858988U, 0x8893928e9299808cU, 0x91a4a18b86938887U, 0x919999a0ad968e8bU,
  0x969f8393a2988f84U, 0x888a8e95aea49691U, 0x9b9092908e98978eU, 0x8b899b869c878b94U,
  0x85999994958c8f91U, 0x9c8d8d928e8d979cU, 0x8b8e939296909791U, 0x918e9b94978b9b89U,
  0x95918f8d918d9596U, 0x958f8f8a99978e96U, 0x88919d879697968eU, 0x979b998b89959294U,
  0x948d918d97979a90U, 0x948997948d8e8e95U, 0x879b939c918b8990U, 0x8d9991999695899cU,
  0x918b9e8897858e87U, 0x978a9095978e9398U, 0x8a8e949c95978a98U, 0x9e95948a91999093U,
  0x869796948b879298U, 0x908b95918b9c9789U, 0x8d98948a8a8b879aU, 0x8a9290998e8e8b88U,
  0x8a998f9d9896918bU, 0x908b90928f91918cU, 0x9893948f9c8e9b96U, 0x8b958a9386909093U,
  0x9a8d9c9c8b8c858bU, 0x998797928c8e8991U, 0x909689899c9c8d88U, 0x8b9c889798988d93U,
  0x8b929798978a8c88U, 0x90938a9690879b8fU, 0x9490969292999095U, 0x8f8f8f89948d8994U,
  0x918b9c8a9994968dU, 0x958c888f958f878cU, 0x9c938e908c9c8c9cU, 0x919193919a91928bU,
  0x8a8c989b8e98908bU, 0x948e918c918f8b93U, 0x9b96959791949093U, 0x868c89959b8b9b8bU,
  0x9996889485939598U, 0x8b97948a8d888e8dU, 0x9198998e958a9095U, 0x9895959193908c94U,
  0x8f8c95908e8a908cU, 0x919d8c8b8d958c93U, 0x9399878b8f909193U, 0x98878f9695928e8dU,
  0x9c948a969596978aU, 0x8696899293968c8cU, 0x928d8b9095948a93U, 0x92939a898b8b9c8dU,
  0x8799888a8a9a9c88U, 0x978d959693929390U, 0x856b78849e948a8bU, 0x6fa78a99ac728e5bU,
  0x73887a7e5d8c7e92U, 0x838c8684a19b9ea5U, 0x999faa846d964776U, 0x92476a8a9698a093U,
  0x91a19d8ca1a09578U, 0xa59473914e768d9dU, 0x6f8e93959498939fU, 0x90809ba08d738a44U,
  0x75904a808296929bU, 0x9998a1918a9a9285U, 0x9b9a927f8d57777aU, 0x587e7f9794a2988fU,
  0x9b998299939c7e99U, 0xa88fa1637277a793U, 0x709c98959395a3a1U, 0x9aa59eaa88a6696fU,
  0xa57069679696a38dU, 0x9798879499a19d93U, 0xa093a1a86f6c7ba0U, 0x736f9392919488a3U,
  0x9796a4a79d95a56bU, 0x979b7170689e9896U, 0x938c93938b979ea5U, 0xa392a990a0747c6bU,
  0x7d806b98959d8997U, 0x907d94ab9fa797a1U, 0xab93aa6e786d9b8eU, 0x718f8e958099a7aaU,
  0xa09da1aa8eaa7381U, 0xa06a836b97949981U, 0x9598909a9f9ca687U, 0xa5a481ad79766a91U,
  0x76728a98988997afU, 0x8ba6aa98ac92ab7eU, 0x98a17379798b8d9bU, 0x978b8d9da89b9ca6U,
  0xa69aa882a46f7f80U, 0x6c82768a968fa2aaU, 0x9495b1a095aa84a5U, 0x9c8399896e888a88U,
  0x8f848a99a1b59786U, 0xa98f909891a0746dU, 0x986f79948d89999eU, 0x869c97ad9696898aU,
  0xaa9f96a87f78999aU, 0x6b9a978b9e9fb3a3U, 0x9ab795a7997e9c62U, 0x94a0536e96a297a3U,
  0x9a928c8dada29a9fU, 0x9e9aa58db25e6995U, 0x49758295999391a2U, 0x7d86aa91939a98b5U,
  0x9aa09071668b918aU, 0x7b8a7c8594b99a93U, 0xbe878890a27e9d64U, 0x9e91a19a8b926a9bU,
  0x9baaa5b0a89da9abU, 0x9b9da2938c9d9b96U, 0x9690a8a5aca1aaa0U, 0x948b9d8e96a19086U,
  0x948e899792a29c90U, 0x9da3968d8c918990U, 0x998f9a948698828fU, 0x998791919a8f8d8bU,
  0x8d91889b928c9c81U, 0x9d8f7f918e888d91U, 0x9494909795919a8eU, 0x898d888f96828e88U,
  0x799a7e898d8c9496U, 0x998a8a949c8c979dU, 0x84959c788b7d8889U, 0x7e9b92959a8c849bU,
  0x9a939c8c939e7d98U, 0x9b7f97778b8e9298U, 0x8293959e9d98899bU, 0x8f8f989a84867a9bU,
  0x877c8b8b9589959cU, 0x989a868b90979189U, 0xa0a28c887d919394U, 0x968f8c8e8a879690U,
  0x96a18c9d96808e7eU, 0x8895839d9096939aU, 0x9e958c89a28592a1U, 0x8b979c7896868f89U,
  0x7f9883959199949bU, 0x9390a0929e8f8695U, 0x99808d809793938fU, 0x888a9292859e8698U,
  0x9f8d9e91808a8a93U, 0x8687988897999b88U, 0x979d999b89949d84U, 0x939a788480969a95U,
  0x9a8e9b969ba09e92U, 0x97a5969f9c7d9087U, 0x879587a689998992U, 0x978b8b93a08e9599U,
  0x89989d989495ae92U, 0x9ba896a09a8b9998U, 0x9299a485a4978d8eU, 0x908b8fa1a089a3a4U,
  0x8ba29d928d97879cU, 0xa382968e8d8aa19dU, 0x96869e95a1989a93U, 0x9692958f7b9b8280U,
  0x978c8498868d8b9eU, 0x9a7f929697909480U, 0x949a7696907e8589U, 0x8997808d779b948eU,
  0x97978f909c78957fU, 0x7ea98a8da192928aU, 0x9797819297a38cacU, 0x9798a693ab9d8994U,
  0x988099999079a9a0U, 0x839870917c98ac7aU, 0xa5ab849c7b8e8f9fU, 0x7ea788658a7d927fU,
  0x908e90ab9eaf9397U, 0xb1999a7bab8c789bU, 0x927393948b96af95U, 0x99a39ab5a1917da0U,
  0x8f7faf807393958eU, 0x9d95868cb296a595U, 0x99a5a39a77a79080U, 0xac818291959399a9U,
  0x948bad9fb7969271U, 0x9d9b7ea395779b9bU, 0x7f968c948ca099b3U, 0xab8eb6969078ae87U,
  0x7db48e7a96909089U, 0x9b9091a28fb49f9aU, 0xb58f9480b5988695U, 0x98809a988c95a09cU,
  0x89ab98b0a09579a9U, 0x9983ae997b9a9c8cU, 0x979b8287aa8ea691U, 0x8da5918e84a1907cU,
  0xa79983909c89879fU, 0x908ead839a9b8a7bU, 0x9f9b71a68e889b92U, 0x7ea1a08c88a494a6U,
  0xab93ad979d82b38dU, 0x83a3938496998e8aU, 0x988595b298a28c97U, 0xaa9d9083af937a93U,
  0x998597a47c97b28aU, 0x8da894969a9279b2U, 0x9c82b69c7a90a28cU, 0xa0a09299a188969fU,
  0x7c9ea3a075b09b7aU, 0xb98f789e9d828494U, 0x7b949e8baf9ba677U, 0x9b9b7fa59180a190U,
  0x86979a838ea284a8U, 0xac8fa9989285a98aU, 0x7fb68c738e938492U, 0x9c8a95a98da3998cU,
  0xad94957eae917b93U, 0x837092997d95aa89U, 0x97ae8ba29d9985a7U, 0x9677a58e84989b86U,
  0x9c968d95a78fa7a5U, 0x94a599a2729c8587U, 0xa2897e978b9290a8U, 0x928db09d969a9e83U,
  0x959074b091838f87U, 0x869f8c8ba09d949eU, 0x948c8ea49d919f82U, 0x85a4947d8e8c8d91U,
  0x918a8d9c8996989cU, 0x8b9a91939c8f969eU, 0x8a8f8b93948c8a92U, 0x92988f928f959b95U,
  0x8993909188919091U, 0x95878b9392988f93U, 0x9d8c8996a091948fU, 0x908d8593918b968eU,
  0x9188969f8c9a908fU, 0x9988958a978a9688U, 0x92909388929a9d89U, 0x94998d958e9d9796U,
  0x9a899496919a968fU, 0x979992978c959795U, 0x9a8f889494908d8fU, 0x9385978d93969599U,
  0x90998a9995889c8fU, 0x978f979791909494U, 0x938997929996918cU, 0x919a8c9690889289U,
  0x8f8d948b8e918f8fU, 0x8e888c91938b839bU, 0x9a88948888969492U, 0x878a998f8e899190U,
  0x92969c96958f8997U, 0x8f8788908d918e9aU, 0x97939b979a989092U, 0x928a838f999b9098U,
  0x9597918a97949396U, 0x8a9b978998858e8cU, 0x939b90968e8c9897U, 0x9795948e8a9a8894U,
  0x91978d879a8f919aU, 0x89968f9a908c898cU, 0x899294949899939aU, 0x938f928f988b8c96U,
  0x8d8f8a8e8a9a8f8dU, 0x948a909088979395U, 0x91988f9b9d969397U, 0x868c8c8d989a8c91U,
  0x898c899498978e9cU, 0x99989d8e93899396U, 0x8e909c8997839091U, 0x948b918f8c9c918fU,
  0x8e8f9487958e9691U, 0x9c8d89848e909197U, 0x9190949d878b9991U, 0x9397879692948b8fU,
  0x8e92988d9c909996U, 0x998c87858b8a968cU, 0x8a94998f85879693U, 0x8e918e9395859193U,
  0x8595948898919191U, 0x8e91969390939191U, 0x969894978894889bU, 0x90949a8999898f97U,
  0x8d99928a88908898U, 0x98878a908a909b95U, 0x998e93888c938989U, 0x8f918e9c9793958cU,
  0x9b8f8d9a8c969890U, 0x9996978799919491U, 0x888d958b92919796U, 0x8d9c99969793949aU,
  0x8b958e8c8c8b948eU, 0x89958b8d908a989aU, 0x938b9a939a8f8695U, 0x8d9292898e9a979dU,
  0x98968f8d9890938eU, 0x8d949891949a8796U, 0x9887928a8b958d95U, 0x919a8e8f8e8b898eU,
  0x8b8a939787899396U, 0x9197868a8d949993U, 0x8d8992978d8d9d94U, 0x9a9c8f9b9090968bU,
  0x859c969893978f96U, 0x8b9690968e989693U, 0x898a8a859496978fU, 0x8f8b9a94969c8f93U,
  0x9796928996978797U, 0x978b8b908e959298U, 0x928b91999094939aU, 0x9692969592998e8fU,
  0x8e8e94988d8d8d99U, 0x8d89969a90968c94U, 0x95939a8f8d9a8990U, 0x93978e8e9b8d9688U,
  0x98988d8c9392979aU, 0x989695889193939bU, 0x8e93969895898e9bU, 0x88908b9b928c8897U,
  0x9a8b8c979189908cU, 0x92878c8e918b9294U, 0x8f938d909c889898U, 0x938c938d8e949688U,
  0x908b88929a9c969aU, 0x979a969493909692U, 0x8c8c988b938e9298U, 0x8a988f918e988897U,
  0x93998b9b8f889d98U, 0x96998b9094958c8dU, 0x8f9691998c928d95U, 0x94938d8a9893889aU,
  0x948f998e8a918b95U, 0x938b8a8a9b8e968eU, 0x8b86958e88899b94U, 0x9096989796889690U,
  0x949091908d978e8fU, 0x9c8e8f8b8b93968cU, 0x908995909188998eU, 0x898b998d9693979aU,
  0x8a8f939d9c92988bU, 0x8f909a89918f8c96U, 0x969b98918f889992U, 0x9d9c929895978d8dU,
  0x939394869e9c9293U, 0x8e8a9a94978d9089U, 0x918e938c869b9391U, 0x969d9397928a9a94U,
  0x8e93998a8d8b9b8dU, 0x908d91958a8c9593U, 0x958d978f9b93919dU, 0x8c878a979d889d94U,
  0x968c8a9c9395968cU, 0x9a928e908f90929bU, 0x94869c909d88938bU, 0x91918d9689949488U,
  0x929b8b9187949297U, 0x97888c928f9a888aU, 0x92938d8b99888a98U, 0x958f8a9e88919694U,
  0x9a91929b8d938d8dU, 0x979d9097948d9e8fU, 0x91978f9e8a929b9dU, 0x8d908f9a8b9c879cU,
  0x9593909394969c8eU, 0x94978790929c899bU, 0x8b958e9794939696U, 0x909491979c889c94U,
  0x919a9b9c95949296U, 0x8c8b968b959c8f95U, 0x94948c9695938b8eU, 0x9b8b94938f93948eU,
  0x8a89898e97938896U, 0x9d8c8e8f8c8b9799U, 0x89968e9292859493U, 0x889d8a9693918c98U,
  0x978a8c8f8c8e9595U, 0x948596899d958c90U, 0x91928d919c998898U, 0x928f8c909497899aU,
  0x8c8a909498909796U, 0x979a8e918d939c8fU, 0x918f93988c8c8e95U, 0x8c8c9a888b969695U,
  0x9693978b9786948cU, 0x8a8d948f858d8d90U, 0x9c95919499919b8bU, 0x978b928b8b98908aU,
  0x96918c8d8d969a8dU, 0x988b8d948d8a8a8bU, 0x96878a859586918dU, 0x979a9593968c9194U,
  0x9b9496949790979cU, 0x908898909e969796U, 0x9a9b8c9b998b8f88U, 0x949a908d9494939eU,
  0x8b90989090949991U, 0x8e959b9e9b9a9493U, 0x93999a8d8f8f8c96U, 0x88958f95889b948eU,
  0x8c8991908e959293U, 0x998c8e9888898d88U, 0x9498969b9a928c92U, 0x9296929a8a8a9292U,
  0x9b95888b888c8b8dU, 0x959a9b8b8b8c9298U, 0x8d918f989b939b91U, 0x929a98958b938d97U,
  0x93899c908a8f8a90U, 0x8f8a8f968f9b9a97U, 0x8d97919192929394U, 0x899c8d8f939a968eU,
  0x9798908b908c9294U, 0x908e8a8a999a968dU, 0x96968c9c948e928cU, 0x93939a958b948a96U,
  0x909a8f97978e9c8bU, 0x908a8b98918d9593U, 0x8a908f98899a9197U, 0x90998d939b958f8fU,
  0x8c968e92958d9c92U, 0x8a8b928a8b909099U, 0x928c9c939b93968bU, 0x93989a9c98989993U,
  0x898b928c8890948fU, 0x8a8c95988f93948eU, 0x8d928c8b9b899699U, 0x9096998e8a8f8a91U,
  0x968998908b8b8f97U, 0x8d8f8c948a899b92U, 0x899a979a89958d93U, 0x8a99958b8d9a8a9cU,
  0x8f9599988a939a98U, 0x8d8e978e978a899cU, 0x8b8a9a998a8d8d91U, 0x8e999c99988e9687U,
  0x9a88979792958994U, 0x988c888b928e8e9bU, 0x9498958893968f8eU, 0x8d9793999a899296U,
  0x958b8e928d9c8c95U, 0x88928a8d919a8a8eU, 0x8a8c92959c95968fU, 0x898b989595958a8aU,
  0x9488968d92958d8eU, 0x908f8f908d88908fU, 0x969296898a8d9096U, 0x99888e958e999498U,
  0x8e979a8f8b8d9694U, 0x8997909a9694999aU, 0x8b8c8e8a908e938dU, 0x9b93898c90888e95U,
  0x918b8a8f9796959aU, 0x8f938f9b8e958e97U, 0x9c93968a98909c8aU, 0x9b9190908c8d9295U,
  0x908c8c9893899b99U, 0x8e8b898a9b998a90U, 0x948b97959a989498U, 0x9a95949597979490U,
  0x959a9a98969b9695U, 0x958a8c9790909b95U, 0x9b9793979a939598U, 0x918e8f9b8a8d9390U,
  0x948a979997978c94U, 0x949a92969a8c8e9aU, 0x8c998f99929a9495U, 0x8c8f91958e929092U,
  0x988a8f929893959aU, 0x9096918f988e968fU, 0x978d97968e979a8cU, 0x9c908a8b89889094U,
  0x95959c958b939691U, 0x919395908e979499U, 0x988d92959192928cU, 0x979b98878f909092U,
  0x958e8b9b93939594U, 0x9c8e90908b979a8dU, 0x9789919094918f8aU, 0x959a999188998c96U,
  0x92979b968a8a8896U, 0x9a95928f8b999089U, 0x9a9a8e8f94979890U, 0x8b998b999292929aU,
  0x8c988e918f988b92U, 0x8d979a92988e9094U, 0x8c958d9b938c8f8aU, 0x988c899a958c989bU,
  0x978e978d89979197U, 0x948d909897968b99U, 0x93999294998f8993U, 0x988f95889192948fU,
  0x8e8e989489938b9cU, 0x8c908d969794889aU, 0x949889999294938cU, 0x92888b8f9c909996U,
  0x8e8f938f8d929991U, 0x90909991938a8f96U, 0x9c8a91928d8c8d91U, 0x9a91888d99938c90U,
  0x90958e8f8e989796U, 0x91928787968f938cU, 0x8e938a9289998896U, 0x898c8d928f8e9797U,
  0x9094958d97989991U, 0x8a8f9a9892969598U, 0x9997938a95929090U, 0x948d8f998f908d8dU,
  0x8997969d8e93908dU, 0x9299918e888b9996U, 0x8999909299928c95U, 0x909b8e8e8f958b89U,
  0x93969a9c9792978bU, 0x9f7a38727c9b8a88U, 0xabdadbd2fb86c285U, 0x9bc9988d86518795U,
  0x888a8ea8d9dacff8U, 0x7e93ab9b93ad96a2U, 0xbb8197979c9e9ba1U, 0x939c8d8a96978764U,
  0x8ea668bc84939f9cU, 0x71869e9193958cb6U, 0xa089aa90ad8aaa8dU, 0x8b97947594969292U,
  0x9d94ab9d759e9091U, 0x9182887f8b826b96U, 0x826ca89e8c98a77bU, 0x93967b91798f8091U,
  0x858682857cae9c88U, 0xa89a968d946c8d85U, 0x77a6a1987881877eU, 0x7b917a9d9d869b9aU,
  0x8b84a371908fa589U, 0x868e7a80918dada2U, 0x90ac929586918093U, 0x8f728e8499788392U,
  0x878c9294a299927cU, 0x9394808b7183888cU, 0x9186957f8888919aU, 0x82849f9b9b919d6eU,
  0x87a37a9a7a8c9192U, 0x9b95978a85948b89U, 0xa58a9183988d9983U, 0x8aa27e8e848a888fU,
  0x868f8e9f8b919190U, 0x928f8d7fa9759583U, 0x60828b8c8797a37fU, 0x8d938d84858971a1U,
  0x8f899563807f8289U, 0x808f90889d818480U, 0x868586a28ca27194U, 0xa682998a9c8f8e92U,
  0x9f92ac898d7f8b87U, 0x918f7e957f997e95U, 0x91a29aa992b59684U, 0xb3979696a398be93U,
  0xabba8e9c9aa6aeb9U, 0xa79fbea9a296adadU, 0x9fb1b9b4bd95a382U, 0x94a082a190b481b0U,
  0xa66a919ca59295b7U, 0x6f7780808987989bU, 0x7c99a29679959a86U, 0x91947b817f81777aU,
  0x897d838a8db1a26fU, 0xafa571908d727776U, 0x838b899079767d96U, 0x928e85998e4ba097U,
  0x31a0a094a89cbaa2U, 0x9bb3a4a295907d86U, 0xe363af888d679a9dU, 0xa0ac869dab83bb6eU,
  0x96ac80c4769e80abU, 0xae779fac938eb1b1U, 0xa2a4a29baaa6b6a0U, 0x919d95867a9da0aaU,
  0x8c8ab497a1a78a7aU, 0xa38f769ea4a1937cU, 0x897b789991a38e8aU, 0xa8949c9898889798U,
  0x899f9580787c9593U, 0x869c98a68d889391U, 0x89948687948e8b86U, 0x93927d809c959a87U,
  0x8e937f9390827f96U, 0x937b948d908490a3U, 0x94869e83967e9086U, 0x848d839490889194U,
  0x9489869284a084a3U, 0x958594818f869788U, 0x84917e82948a8c8dU, 0x9d94939381878291U,
  0x858d9b908a8c8d93U, 0x8f978e9a9e87978fU, 0x909791968c958f95U, 0x91888b8298989e9cU,
  0x8e939088908c9696U, 0x878f998b86958a95U, 0x8f909e9e9b9b8897U, 0x9c8b9a848d949787U,
  0x9891889587969893U, 0x97848d9d8b8c8693U, 0x8a7f949588948984U, 0x858f8f918b969791U,
  0x88898c8c86948f92U, 0x89849497877d8d87U, 0x7d868f9693898d82U, 0x9a9487909294a181U,
  0x98a3a08e98948d9bU, 0x938799968b8a889bU, 0x6891899ba2979b92U, 0xb4a7ac96968ca994U,
  0xa6ad886d8b95b6b5U, 0x9eb4b8969fa48e99U, 0x98909c9eaa9b79a5U, 0xa694adafbcb98fa2U,
  0xac89b19c9285b396U, 0x96ad94999b9e85a8U, 0x928f958a84998c8aU, 0x94899297ada19c94U,
  0x9ba28b8b85908b78U, 0x90906c918e91939dU, 0x99958a90a999868cU, 0x818d848f857b8a94U,
  0x7578759089979aa9U, 0x9389ada57a97949eU, 0x938694678671937cU, 0x9a8a909391958c96U,
  0x8992929098918990U, 0x919592988790988dU, 0x999a92919199999aU, 0x8c918f8e8d8b9188U,
  0x948d8b959a8a899aU, 0x99968c989292928fU, 0x8d8e948e8b97899bU, 0x898c8d92918a9293U,
  0x9c899095938b8f93U, 0x8b908e888f94908dU, 0x888f9a9594909996U, 0x949a9892938b9a9aU,
  0x878d8f8e918c978eU, 0x8b988f94998c8b98U, 0x9b8a899294969194U, 0x9998989590999c98U,
  0x93978b8c928a8895U, 0x929a8b8f90889298U, 0x918b8b919c8a8b8cU, 0x8f8d949b8b959989U,
  0x8b9a95939b898c8aU, 0x918f8c909994988aU, 0x949a8b958a879a8aU, 0x989a8f92948d8a90U,
  0x968a908d93949298U, 0x948a9b98988c9c8eU, 0x9793979392959a8bU, 0x90929192988c8f92U,
  0x8f8f9796949c8f95U, 0x9998898b968b948aU, 0x87919999899a9699U, 0x9a9c9889969a9a96U,
  0x9b8b929594969688U, 0x888e8c8d92999798U, 0x8991928a898f9092U, 0x96958e8996949c97U,
  0x949c938f898f8c8dU, 0x9498978e898a8c97U, 0x94958c8b8a8c9291U, 0x968a949489988a8fU,
  0x9397908a998b908cU, 0x989795898f9b9896U, 0x8f898c9491968d99U, 0x9997938b8b95998aU,
  0x9a89978c8f8e8e8dU, 0x878f959b98899a91U, 0x8c908b9399899398U, 0x8e99938b968c9892U,
  0x9b9a9b95948e9696U, 0x8a9195988990979aU, 0x9592889b978f9b99U, 0x9793949a8c8b9994U,
  0x879b9a90918e939bU, 0x978d878f8b989195U, 0x9193968e8f8b959aU, 0x898c909192939c98U,
  0x894b51835772a6a7U, 0x969f93855e53503eU, 0x50454b69625f9b62U, 0x7d995fb0b791674dU,
  0x93707e7b79787781U, 0x989095819375b5abU, 0x7caea6978b857d87U, 0x8c99879c8182829cU,
  0x848e9690b19e9490U, 0x98987f9499979c91U, 0xa297949691988ea2U, 0x929ea191988b94a4U,
  0x7a89a6aaa1958e94U, 0xa0889c97958c98a3U, 0x8c84908c91a59aa9U, 0xa99aa0a48ca48e92U,
  0xa096a198999c8b8fU, 0x9285959d9b9e9e90U, 0xada094b797a89194U, 0xa3988f93869ba5aeU,
  0x9e9e9e9c978aad97U, 0x90ab9b988c97a58cU, 0x8f9995aa9f9aa3a4U, 0x979f91929e969b8cU,
  0x9a90928f9394929bU, 0x8596a2958e8989a9U, 0x8a93b7af9d8793a0U, 0x9491928496a39498U,
  0xa8999d9199ab9fa4U, 0xa09998898d9c8d99U, 0x9d85a0a19f9b9490U, 0x8f9195b198a0947eU,
  0x9b8a8c93879ea98dU, 0xa2a59794969cb08fU, 0x9fa68b978887988dU, 0x7a9993948f9b97a0U,
  0xa094919ba9989c8eU, 0x90948a7c9e9b9c94U, 0x929b9f90969f97a1U, 0x95979a8d967a7e8fU,
  0x8f6e9a9191888895U, 0x85828ea099b29ba0U, 0xb7a4928a7f927592U, 0x977e8a8783888898U,
  0x8b8291b2968a7e88U, 0x868a8295778c9276U, 0x94969e909ba5a79bU, 0x969690929b819d7eU,
  0x8794a9adb9bcacaeU, 0xb4b0b3999f969892U, 0x9387879299a0acb3U, 0xaca1a2b3b6a88aa3U,
  0xac8cb389898fa4a2U, 0x90898b98a5aba5aaU, 0x8388988d98988c62U, 0x77a05a7e839d817eU,
  0x94717f8e81837687U, 0xad97969d8991878dU, 0x978687a2a08e849cU, 0x9a9298a29f978c97U,
  0x8c879b9594849797U, 0x8e9a9b9598949a9dU, 0x9d9c9a88928a9091U, 0x938a97899d9a9093U,
  0x92968c969e878b84U, 0x929a91948f8a8ca1U, 0x9091a48f84928da3U, 0x879396869491908aU,
  0x8c96909197aa9585U, 0xab868d828b97889bU, 0xa48d9c909d8b918bU, 0x92918ea58f978099U,
  0x8789979d9793818cU, 0x97869798869d9f87U, 0x939e8893858da390U, 0x939b859e898d9b91U,
  0xa189919b96878483U, 0x948c849da0939280U, 0x929a889f908f8aa4U, 0x909ea39483868fa8U,
  0x7e89979595829f8bU, 0x888f928d90a59294U, 0x998a857f939a858fU, 0xa296988596889a9aU,
  0x989995a689868992U, 0x877fa0a0938d7e90U, 0x8c8b9093969b9082U, 0x8b938593899b9e8aU,
  0x8fa68b9d8a91879aU, 0x999598979f8b948fU, 0x8089899597909f86U, 0x879e86a08b999690U,
  0x8b9d95838d8f8ea5U, 0x92a09995928c9393U, 0x8a97959596a2948dU, 0x92938a948fa09795U,
  0x9f8f9c8798939098U, 0x9191939e8a8d8898U, 0x918e9896959f9296U, 0x8d8c8f8796889d91U,
  0x8b9a95929098a394U, 0x9c9a989e808d9397U, 0x9699989496978c8aU, 0x9796809aa994968dU,
  0x8b928896909089a1U, 0x918b9e928a84979dU, 0x9b979a84897f9c96U, 0x8a92968797a19086U,
  0xa78886999ca2898eU, 0x9c9290838e988796U, 0x878a94a78e898a96U, 0x927c9c9d948a8d88U,
  0x9b968294808c9991U, 0x949784908c939387U, 0x85ad74e3afcea07aU, 0xbeae7b989c9ea288U,
  0xafb69388ba6ed89dU, 0x79c87a8e9ca2af95U, 0x95989c9ca39177b4U, 0x9474a776b28093adU,
  0x66989e95a09395a4U, 0x9593a29071b77896U, 0xb06c9459889b929aU, 0x9f8d8d81909f9e76U,
  0x9a977a9d689c6a95U, 0xae6e9e9c8c948287U, 0x8f868d989a81ad77U, 0x7bb780ad74959b87U,
  0x9da0919286959294U, 0x8c9d9482b382a880U, 0x799a9096a7978990U, 0x8592948ea09f7197U,
  0x9683a57d9e9698a6U, 0x8592a9918a8f968bU, 0x91987f997d97749bU, 0x9e8b99878c9e8b8cU,
  0xa3899a8d937f9a75U, 0x8aa688a383a58786U, 0xad788b93859b9981U, 0x8f8f8980af8aaf81U,
  0x8eb883a988849185U, 0x86937f99908c80a4U, 0x8b83a988ba90a17bU, 0x8bac859697889f9dU,
  0x8e938d8d8ca97fa7U, 0xa08dae8eb6828a94U, 0x8d99977ea09e8e7eU, 0x8fa0939e98c888a7U,
  0xc487b07a958a879fU, 0x9d819d949e9e9088U, 0xa19996c68daf7c94U, 0xb17d958c84949890U,
  0x989d9ca69d90c77aU, 0x85bc7cb37794917fU, 0x91806896a09fb0a6U, 0x969c9884b685b066U,
  0x75af6c907f779f90U, 0x77a490858d8a85bbU, 0x8685c169b56f966fU, 0x6c917fa29b7b7e93U,
  0x828da69b7ea36cbfU, 0xa472b27f95a29a9cU, 0xa5a69f8c8698a378U, 0x88868b9890bb8597U,
  0xb879918f8e9e8b9aU, 0x998f9d918a8f9d92U, 0x88978cb16b838d8bU, 0xa39682988b999491U,
  0x999791989887b877U, 0x8dc69ecaaf948f8bU, 0xa381af879b9ebfb7U, 0x9f9392788b5eba7dU,
  0x74bc7fa3979a85a0U, 0x8d9795a4a6988082U, 0x8a96738aa4768b97U, 0x688ba39ba28e9596U,
  0x8d878289aa7183a3U, 0x738aa66681a39c97U, 0xa48e928f94918eacU, 0x8799a56f9aa5647dU,
  0x9c6479ac91929286U, 0x9a998e8094a08097U, 0x95749a976680a98eU, 0x7aa0a089958c8387U,
  0x8587878e76b1976dU, 0xb09b6768a0908f8eU, 0x988e938c978a9a81U, 0x8aa287ad996d66a5U,
  0x686498999991989eU, 0x9b938d859d8ba89cU, 0x7cac9b696ea0a09dU, 0x8f9394a697878b91U,
  0x8b938b8ab5976b71U, 0x906365999d96a293U, 0x989e90868b8e89abU, 0xa488af9b646a8f90U,
  0x629995a4a08d878cU, 0x958a85948bb39071U, 0xb79368689fa19b99U, 0x9a99988a918b9c7eU,
  0x989b7eb18c7c5d8eU, 0x74678d9e919f9287U, 0x938e96919984bb91U, 0x8bb49876749a9198U,
  0x8a9586a399868891U, 0x868c8d84ada1737bU, 0x99736c8d8c949d9bU, 0x959991959b947eb6U,
  0x9487bca3876b9297U, 0x78898c8fa2898f9fU, 0x968e9f9687b29b88U, 0xaeb0677e89899d97U,
  0x8d86939b94909494U, 0x9a8b8eabac667e88U, 0x777f80858898a392U, 0x97a196989189a2a1U,
  0x90a89a7d86859391U, 0x8093889e9c909894U, 0x9b888f8ea8a0817aU, 0x9981818d8e8ea3a4U,
  0x909c9a9b999587aaU, 0x9396a29180878c95U, 0x75819493a99a9a91U, 0x9a9e8a9091a49385U,
  0x98a7818c838490a2U, 0x8597aba6bb8d887dU, 0x9a84707fae9d6e6fU, 0x8792879d9daba3b3U,
  0x8b9397988e948994U, 0x968a9a879b949f96U, 0x86958e8c8d969294U, 0x998e8b8c8a8a8891U,
  0x85929087999b9c8bU, 0x8d9b9c8f95869a8dU, 0x9299958a94949491U, 0x9b869e8c8b8c9a96U,
  0x948e98929487858cU, 0x95878f8b958e9493U, 0x8d8a8c929c8b889aU, 0x948b8f8689949786U,
  0x8d8f898f8f959b8eU, 0x96939c979296948fU, 0x9087958e888b9e91U, 0x9294949792909988U,
  0x8d8e8d8e95999893U, 0x899b9789949c938aU, 0x958f928d8d94908fU, 0x8a9c94989394989bU,
  0x9690949892969a92U, 0x928d988e8d959698U, 0x948d8c8996979697U, 0x9c9c9b8a9a8f938fU,
  0x8c9696918f958d95U, 0x8a94868c8b8d918cU, 0x969e9d9389958f94U, 0x9891959293919095U,
  0x88998b9d95988f89U, 0x998c8b998e999790U, 0x88898b90929b9c8dU, 0x968a8f9c8b949d86U,
  0x97928c899293949aU, 0x8a928e92919b8b8fU, 0x928a969899968e89U, 0x8b90919b868b968fU,
  0x8b8f9c9696988f8cU, 0x9388948c96919296U, 0x8e8f8b989c958c96U, 0x928e9c9a969a9088U,
  0x9d9495878b868c98U, 0x929c958f8b96958fU, 0x989a928e96938b94U, 0x948f9594978a919bU,
  0x8b908a8c8c968e94U, 0x908e8b928c8b948dU, 0x88869c969c918b98U, 0x999090899b919189U,
  0x929a8d8b928d9392U, 0x989a8e8c8c95918cU, 0x87929c8a87879894U, 0x88908a8c949d9393U,
  0x92939094928b8587U, 0x90969789998d9e97U, 0x949f8a968f988e86U, 0x8f98908f94998c9bU,
  0x8d9395999289959bU, 0x948c8b948e919399U, 0x8e8a94958c8f9197U, 0x9a8c8b959499918dU,
  0x92968a99908f9a94U, 0x8e8a8a9a98908a99U, 0x95908a95988a9999U, 0x939a90898b8f9893U,
  0x91978a9b9b90909aU, 0x96968f978c958997U, 0x978c92978b878a8cU, 0x90999a8e8d9b8a94U,
  0x8b96908a8f8a8b9bU, 0x918a9292908a9890U, 0x8b97989195928d9aU, 0x909686938c918c8dU,
  0x89919a889699928fU, 0x8993908a8c888f97U, 0x928b948c8b8c8d97U, 0x9493978d8f928e9dU,
  0x8e908b9990888f89U, 0x898c949793878c95U, 0x978f8990978d8f9cU, 0x9c979a889595998fU,
  0x8898958b8a8e8f90U, 0x93989695908e9689U, 0x8b88989a998a988bU, 0x9c8992929b9a9899U,
  0x8f9c9997938e988cU, 0x9b9a9b9a928a908dU, 0x8e8f9b9294969697U, 0x9a8f918e95988a8dU,
  0x9793929096939798U, 0x979a979992928b8bU, 0x929d8c978d97999cU, 0x92888c8f8a90938eU,
  0x8d9693999b8e8e8bU, 0x8e9a9a948e8b8d99U, 0x8e9b9998969a8e8fU, 0x9294948e91979495U,
  0x91999496919a8f90U, 0x87938799919c9894U, 0x968e9b9b8d8e9493U, 0x8a9c95988a938f89U,
  0x989b8f8b8a8e9290U, 0x8f8c8b96899d8f93U, 0x9b8f8e8b978b8f8aU, 0x939989968997948fU,
  0x968e979a919a9690U, 0x9199948d92958a8bU, 0x93898e9090979c92U, 0x899b898e959a9a9cU,
  0x91908c9192949197U, 0x98918b978b889498U, 0x91959592929a9496U, 0x928a948a8a8e979aU,
  0x8e8c8b9a94878e8bU, 0xc0a0919998788b98U, 0x7da6a8c7b1bc87bfU, 0xbc87c0a4a59a9f8bU,
  0xb4a08688ada6b1b7U, 0x90a1aa9db691868fU, 0x759790b4a3969db4U, 0x939da68396aa98a0U,
  0xa08993617d78ada3U, 0x719481a0a1977588U, 0xa57f9f9083917284U, 0x8371747290899c90U,
  0x98a2a1a697978b89U, 0x939179817770739cU, 0x7c84a48f9e97a58dU, 0x9da7819b83838f79U,
  0x8b8d867d7a9786a8U, 0x9587a793a1869887U, 0x897d8f94a687767aU, 0x8b778096969691a9U,
  0xa896a595838083a1U, 0x8c83927f7992a496U, 0x82998da38ea08182U, 0x9c8a8085938f8d7dU,
  0xa67d72828f8aa29cU, 0x9c948ea57a858891U, 0x8c989b998e75869cU, 0x867a8d90a18ca385U,
  0x899c988a9c869f82U, 0x92928b83889b8e9bU, 0x8f978f96a2939198U, 0x8a95998e9c918c88U,
  0x91808198989d90b2U, 0x9790aa8e999e8093U, 0x9f85948e7f93a493U, 0x93958c8c88a08b92U,
  0xaf939f978a91957cU, 0x82807e9794a19388U, 0x989784a7989d9b83U, 0x9297978a908f9a9cU,
  0x8ea29e9893899c8fU, 0x7d9e8491a58a9896U, 0x9994908ba08c9f91U, 0x9fa2947aa29da7a9U,
  0xa0a2ae8f919487a8U, 0x7f7ab4a1988a82aaU, 0x9a84b4a0a39e958dU, 0xa691998c7b92b0a0U,
  0x9caaa69693b78286U, 0xa88b7ca693938c72U, 0x908b7197a39b9a8dU, 0xa4958ca59498a484U,
  0x88a88d979f799eafU, 0x8ba3b8ac9a88a38eU, 0x86a897939f858996U, 0x7d83908ba1ada198U,
  0x95b890848d9ca1a0U, 0xb0a99a6d78949896U, 0x7276436c00aa88a6U, 0xa38d9289a06c5c6eU,
  0x7279878a856e7239U, 0xafa59573837e84a4U, 0x80a99d7f8caea3a1U, 0xb58eb395bfc78687U,
  0xba8386a4a38f8998U, 0x95a78db28aa089b8U, 0xa1958e9d968a9b9dU, 0x91979e97b097a796U,
  0x9da69c9e91889d9aU, 0x8c8e9c96a3b19eadU, 0x9996a685ab929888U, 0x989b91899c958d9bU,
  0x9290a99a88a388a0U, 0x9d8ca39b93888d9aU, 0x848d99979c958189U, 0x8f8e93a893a28a90U,
  0xa183928d82988998U, 0x9c9894918c999593U, 0x8aa78e968b8c919bU, 0x98969fa38d90918fU,
  0x93939892a48d8783U, 0x8a84879d95a09d94U, 0xa19d9b93948d80a0U, 0x9c7b8d9094869885U,
  0x9599909d948b9aa6U, 0x959a919b858a9097U, 0x888e969896938f8cU, 0x949c9c948f9d977eU,
  0x9791868e8d9e9195U, 0x95939892a69c998dU, 0x9995918b8e8a9f8cU, 0x839e708993919ba2U,
  0x93a5978f94988f96U, 0x94949b85a16d8d87U, 0x7c8d8c93a7929494U, 0x949a97918b927f9cU,
  0x91849d839891a19fU, 0x8aa4979194a5a187U, 0x9d948889879e92a1U, 0x8c6e917a9d98a284U,
  0xa1978fa7a0868e78U, 0x8a9376917d8d849bU, 0x8a908bad8e8ba88cU, 0x9c7e89868e819070U,
  0x7e998799a79ca98aU, 0x899b9b9c7f848a8eU, 0x80938d87a5999c9fU, 0x939a9b878c9ca481U,
  0x9ba0918497958cabU, 0x9499b0a398a3829dU, 0x9e9ba89d94a3988fU, 0x8c8c959991959f8fU,
  0x7e92818c63656786U, 0x404772c0a5628477U, 0x7577616c716a5c73U, 0xb8a4ad7bab939189U,
  0x8f9498a586a69e9eU, 0xa39fa0a499a4809eU, 0x957992a093aba996U, 0xa6a59d94a5a98ea6U,
  0x979599928a898f88U, 0x899b86a195979291U, 0x8b8b969e968f8c85U, 0x9d88787f9294a39aU,
  0x8d9b8a95849e9f88U, 0x9f998e98907e848cU, 0x8e7b938c968a8988U, 0x959a8da091978d92U,
  0x8f86848a7f8e8da1U, 0x9984939399899890U, 0x8898999d848c928eU, 0x8f8d819786918b95U,
  0x988ea09095a29993U, 0x938b938783929c83U, 0x9097919f8b929391U, 0x9c8c8c9484898686U,
  0x8d85898a8f959e8cU, 0x8ca58c8e8d90918dU, 0x858d9295988f9694U, 0x8f8d90939792958eU,
  0x8a9a98939b998e8bU, 0x9a9b94989c8d8d93U, 0x9292939392a1889dU, 0x8a92908b9f929c98U,
  0x928d96a087999295U, 0x9d8c9c8c868b8e9cU, 0x97908e8c8d98988eU, 0x99988794869e9986U,
  0x9f87939a92988e92U, 0x9e849d8a93879a99U, 0x8c9a8a8e8b908f95U, 0x8b90988d909b9092U,
  0x90839e919289978dU, 0x8e95a2898d8b9582U, 0x9f8f869b959a9494U, 0xa1a1a497a49a8ca0U,
  0x8e869c97988d97a0U, 0x9b9f949595a29496U, 0xa78ea39b83919995U, 0x958f99909b909794U,
  0x8b93929b97929d8cU, 0xa29d8b96a29f9b9fU, 0xa186a18c929a969aU, 0x8d99859398949399U,
  0x8b9da197969d8498U, 0x9985928ea0958c9bU, 0x9599888d8fa89893U, 0x9f89889b8ca08995U,
  0x92a99590898f8293U, 0x8aa7989a83889f8fU, 0x8c9da18fa0a68b91U, 0x74989d94a88aa88eU,
  0x59cc7a9f8fbcae91U, 0xa5a19c87cc70648fU, 0x606a9264b56f9d9bU, 0x8b99a0757e9198afU,
  0x8ea5ac9197c78db2U, 0xb28ab59987a3786cU, 0xa681679e9dac999bU, 0xa39c8cad9fab9c89U,
  0xa18b8ca2827099abU, 0x78a9a19d8e7daa99U, 0x8da99c9f938da184U, 0x8da98575a4a39e88U,
  0xa4a58c98a5969a95U, 0x8ca39583a57d7aa3U, 0x7f7ba193b08493a6U, 0xa692a2a2a59978adU,
  0xab88b17271a094aeU, 0x939da69fa28fa597U, 0xa3a49ab292a87576U, 0xa9736e9b92a09b95U,
  0x9a988f9ca992bb87U, 0x98b58dac6c648e98U, 0x738992a89a95a0b6U, 0x9e91a9a6b98faf72U,
  0x91b4877e898c9b98U, 0x8993979f9da6a4bdU, 0xa7a1b48fbb767481U, 0x787d94869b95a3a2U,
  0x9f99a0a8a6b88cb1U, 0xa57fae837d91909fU, 0x8b9398a6a29cb2a0U, 0x9aaa9ba495ac7d87U,
  0xb56a7f8b8596a6aeU, 0xaaaaaa9eae93be92U, 0xa4ab86a67e949088U, 0x8b94899697a3a9baU,
  0xa9b5b3a9c18f9c83U, 0x8eaf72928484a29aU, 0x889fa6b8b0a3abbfU, 0xaba2b17bb27d9384U,
  0x80a17f7fb2b7b89fU, 0xaaa8a2a6a3b288b5U, 0xa58aaa7ba37c81a4U, 0x7e86a9a7a5a5b39dU,
  0xaca6a7a9939b829bU, 0x8f8e877f88a9b2b2U, 0xb4b3bd9f99b2aa8fU, 0xb69c8f9684858a94U,
  0x7b9193bdbab9a89dU, 0xb5ae95af96967c7eU, 0x8f7979849895ae9eU, 0x9ca69aa9ad8ab582U,
  0x86bb8c9185737e93U, 0xa680948e9a919da1U, 0x93a0a384c590939eU, 0xa89cafb07e7e869aU,
  0x868cab95989994d2U, 0x96939d989c978e9bU, 0x928e909798898a8aU, 0x8c929b8d9a8a8d9bU,
  0x948c8a9094898f8aU, 0x939299898f938f9eU, 0x929998958c979199U, 0x90908b8c8b92948fU,
  0x919b9a938a8e8e9cU, 0x9c8a978e9a968d8fU, 0x978990979b9b998bU, 0x918a8f979a8d938aU,
  0x9d8d918b91898c91U, 0x99959a948e989393U, 0x969c91989c929398U, 0x96909699938e938eU,
  0x8e8a9a8f8f989290U, 0x95918f9387978d94U, 0x8c878d9498928b8cU, 0x8a9791979d959394U,
  0x8f9194998b95968dU, 0x8e92939292918d8fU, 0x9a90998f92858891U, 0x85948e988b989793U,
  0x8d978b8d8b919496U, 0x9795998a97939094U, 0x90928c88928b9b90U, 0x9b91948f8f8e8c8eU,
  0x9d84888f8c958f97U, 0x8c9b9b9197939c91U, 0x978f8e8e8b888d90U, 0x8d969b989198919bU,
  0x979a958a8e8b998eU, 0x948e8e9295979089U, 0x8f8f8a9b9b93939bU, 0x8b8e8b9699938c87U,
  0x8897969c8e8c9790U, 0x9691979c8b9e9a95U, 0x9a99968492938a95U, 0x9790918a919a8d8dU,
  0x8b978a8e9a8e8f89U, 0x9385878e9599908bU, 0x8a9b939a8b909594U, 0x999b949791888f97U,
  0x8c8b8c8e8d928c9cU, 0x93959a8e9e998c96U, 0x8d9b939599989b93U, 0x8d928b9e9795919eU,
  0x9192979393958b8cU, 0x8e95909d968a9599U, 0x909790998c939c92U, 0x8f949e8a928a8e94U,
  0x8e93958a8f96998aU, 0x9495948f998d8d99U, 0x9a8b8d8d9b968f9aU, 0x9a9a9e928e908d8bU,
  0x909a949896968e99U, 0x9a96899d9895958bU, 0x8f8a8a929391988fU, 0x8f9a9996929b8c9cU,
  0x8e8b9a8f98988a8bU, 0x9a8e898d8c8d8e90U, 0x948a89988a8b9190U, 0x95979a8a97988b93U,
  0x9396988f8b938e93U, 0x97918f8a90898f92U, 0x899c8a988e938a94U, 0x9c93989588979196U,
  0x9692948b8c909193U, 0x908c8a95968f8e99U, 0x9499969a8d968897U, 0x949a9a8d8f959b98U,
  0x8889919a94928994U, 0x98968f9c8f959297U, 0x8e8a9b908c958f93U, 0x8f908d8e9a9c8f88U,
  0x96928b8c9a939887U, 0x94928b978f98898fU, 0x90938c998e888f89U, 0x989b8d8a8e8e9a93U,
  0x98919092998e9297U, 0x9290958f928c9499U, 0x939c9a978e8b9097U, 0x898b8a8c90949695U,
  0x908c8b8f8c8a9695U, 0x968e8f8f8e989495U, 0x8f999b91878c9b96U, 0x958b8d9a999a9196U,
  0x939294988889898eU, 0x93948b9c8f8a939aU, 0x99928a989c939291U, 0x8893929a8f8f8794U,
  0x8d91999a9596969aU, 0x89878d9995928a99U, 0x929c948f9a948f93U, 0x9b988d9689949191U,
  0x9b8f96908a949895U, 0x8d9a948c948d9a91U, 0x938d889992998b8fU, 0x979a9691958e8999U,
  0x948d8c8d8a979987U, 0x90999694909c9d90U, 0x949591948f97969bU, 0x9295978d8b899796U,
  0x939799988a978e95U, 0x989996998c91899aU, 0x879999979a8a8c98U, 0x8e8b9c9891948c93U,
  0x96999692918b9592U, 0x9195968e8b959387U, 0x99908d93949a928eU, 0x96929894919a9896U,
  0x8a9a9293968c9a8eU, 0x9390959793908a94U, 0x99978c938d929498U, 0x94918d8c87938c9aU,
  0x8c8d938c91878e8aU, 0x889c9292988d948fU, 0x928e8f919497869aU, 0x8a8e8c8a9788938dU,
  0x8c8d8d9a988a9298U, 0x95988d8f8d9b9299U, 0x90929b93919c8e98U, 0x91969b918e8e9392U,
  0x8c8b8e97988f8697U, 0x8a989492918c9090U, 0x8b91949a8d92978dU, 0x8d8c889087988797U,
  0x9a988e998b978f9cU, 0x8f8e8d948b8e9098U, 0x8c948d8c9394898fU, 0x9e8f978e8e8b8d91U,
  0x9c9696928f93968cU, 0x978b8a9a93908c8dU, 0x9b9498978b9c9697U, 0x9c878f979a919090U,
  0x8d8d8b8a949c9092U, 0x938f9a908c979191U, 0x929395879994938eU, 0x9299939d918b958dU,
  0x929e86919298968fU, 0x958a9198909d929cU, 0x948b8e8f8a959d89U, 0x968c8888948c9299U,
  0x8b9a968c99989890U, 0x978a9a999b879290U, 0x909a928d978b9191U, 0x929a9093948f958fU,
  0x9895979698968b9bU, 0x929a9a8b9d8d9798U, 0x8e9a9c938b978c91U, 0x98988d979b97959bU,
  0x8d8c9d9a948c9686U, 0x8d8b959696978a8cU, 0x96999a8b8e9e9392U, 0x9992978c8a8c8e92U,
  0x94988789929a9298U, 0x9a968b89989c8d96U, 0x96939b99958f8e8fU, 0x938f9490998b978eU,
  0x9a8e998a9095928cU, 0x8c8d928b8694918aU, 0x959a8e8e969a999dU, 0x97938b8986939999U,
  0x91958d8997978e90U, 0x96998e938f998e89U, 0x9991869888959595U, 0x8c919b9c9997908eU,
  0x9790999491869b89U, 0x9295879687929a8eU, 0x8b8b9d93908c9191U, 0x8a958a8b9a919193U,
  0x8d8f909f9c898798U, 0x87918f9899918ba0U, 0x9390949491989191U, 0x9b9c968598908b98U,
  0x8c9c939396978b96U, 0x9f84949b9c8f958dU, 0x918598938c908b93U, 0x9794869389998991U,
  0x8f909b8b868b988aU, 0x978896969c929a8aU, 0x998e858f99929589U, 0x999b899c8d8e938bU,
  0x8f908f8a8d908c96U, 0x95898b8e9497948aU, 0x8d90909a99918898U, 0x948b9683858f9c8fU,
  0x8f9e9e8d8d85929aU, 0x95939a9493a09089U, 0x9c8d8c8f9e8b8b9aU, 0x9b928b969c969a87U,
  0x959e8b9893899399U, 0x87898a99948c9197U, 0x98889b929c948f8fU, 0x879e9089918e9392U,
  0x999d8893999a9a99U, 0x91898c939d948b8dU, 0x8e968999958c9d8fU, 0x938a8f93908c938dU,
  0x998da09188859790U, 0x918f95939992978aU, 0x97929794898e8b8fU, 0x95818d94939a8d8cU,
